<pad>	0
<unk>	0
<s>	0
</s>	0
.	-2.85529
,	-3.27191
?	-3.89249
।	-3.90228
'	-3.98196
s	-4.08766
!	-4.23766
▁-	-4.31579
▁I	-4.38857
▁	-4.50372
▁you	-4.53741
▁the	-4.71042
...	-4.83486
▁আমি	-4.84644
▁to	-4.86124
▁না	-4.96656
t	-4.97981
▁a	-5.03497
র	-5.33899
▁it	-5.41274
▁তুমি	-5.41629
▁আমার	-5.50814
▁of	-5.56821
ের	-5.5815
▁You	-5.60838
▁is	-5.61642
m	-5.6425
▁কি	-5.6517
▁that	-5.66594
▁এটা	-5.6895
▁me	-5.72905
▁in	-5.75424
▁and	-5.78947
ই	-5.79908
re	-5.81315
ে	-5.82128
-	-5.8872
▁আর	-5.90244
▁তোমার	-5.93106
▁আছে	-5.9552
ing	-5.9988
d	-6.02513
▁on	-6.05865
▁your	-6.0634
▁for	-6.07774
▁this	-6.10015
▁এই	-6.12883
ন	-6.15723
n	-6.15849
▁have	-6.15986
ed	-6.162
▁সে	-6.16665
▁আমরা	-6.17191
▁be	-6.19884
▁we	-6.20625
টা	-6.24266
▁my	-6.24736
▁are	-6.25116
▁It	-6.26518
ll	-6.26648
▁know	-6.30921
▁What	-6.3125
▁was	-6.32003
▁not	-6.32133
▁একটা	-6.32658
▁can	-6.32745
▁do	-6.32889
▁ঠিক	-6.33682
ও	-6.34965
▁...	-6.35722
▁আপনি	-6.36463
কে	-6.37067
▁জন্য	-6.37131
▁করে	-6.38162
▁হবে	-6.41871
▁যে	-6.4189
▁We	-6.44022
▁আমাদের	-6.44167
▁করতে	-6.46267
▁আমাকে	-6.49117
▁"	-6.50053
▁here	-6.51125
▁No	-6.5321
না	-6.53971
▁with	-6.54231
▁।	-6.54541
▁what	-6.54715
▁don	-6.55787
▁he	-6.58331
▁তো	-6.59264
▁go	-6.61487
ি	-6.61813
▁কিছু	-6.61822
▁The	-6.65008
▁তার	-6.65475
ক	-6.65723
▁him	-6.66856
▁কিন্তু	-6.67161
▁all	-6.67622
▁He	-6.68633
স	-6.69338
▁And	-6.69523
▁থেকে	-6.69846
e	-6.70021
▁right	-6.70086
▁out	-6.70628
তে	-6.70883
▁তোমাকে	-6.71111
ve	-6.7126
ল	-6.71708
▁up	-6.72707
▁এখানে	-6.7279
y	-6.7353
▁হয়	-6.74243
▁সাথে	-6.74884
▁কোন	-6.75522
▁মনে	-6.76383
▁get	-6.77393
▁just	-6.7742
▁no	-6.78433
▁like	-6.78659
য়	-6.78802
▁এখন	-6.81233
া	-6.8275
▁That	-6.83004
▁কথা	-6.832
▁there	-6.83756
r	-6.84994
▁one	-6.86842
▁will	-6.87453
▁এবং	-6.88532
er	-6.89502
o	-6.91217
ো	-6.96706
▁যদি	-6.98113
"	-6.9847
▁at	-6.98738
ম	-7.00526
্	-7.00747
▁আপনার	-7.01118
▁এক	-7.02878
▁ছিল	-7.03206
▁Oh	-7.03767
▁got	-7.04494
:	-7.04579
▁about	-7.04706
▁But	-7.04765
▁so	-7.04891
▁নিয়ে	-7.05008
▁want	-7.06096
p	-7.07106
▁they	-7.0719
▁her	-7.08352
▁see	-7.08523
▁Yeah	-7.08691
▁#	-7.08792
▁us	-7.09464
▁হয়ে	-7.09486
▁নেই	-7.09814
ব	-7.09847
ট	-7.10892
▁করো	-7.11297
ly	-7.11974
▁অনেক	-7.13105
u	-7.14125
▁সব	-7.14129
▁তাকে	-7.14803
▁করা	-7.14907
রা	-7.15372
▁A	-7.15506
ত	-7.15582
▁Hey	-7.16372
i	-7.16808
c	-7.18822
▁তারা	-7.18964
▁হ্যাঁ	-7.20881
▁from	-7.21324
▁now	-7.21707
▁তাই	-7.21976
▁going	-7.22002
▁!	-7.22378
▁back	-7.22704
▁এর	-7.22829
▁Come	-7.23719
a	-7.23958
▁time	-7.24293
▁This	-7.24414
▁ও	-7.24751
ী	-7.24781
▁if	-7.24877
নি	-7.24923
▁ভালো	-7.25115
▁as	-7.2528
▁but	-7.25393
in	-7.25922
▁কেন	-7.2618
b	-7.26669
▁তাহলে	-7.26803
▁them	-7.26984
ু	-7.27339
▁কী	-7.28713
▁think	-7.29874
▁They	-7.30227
▁একটি	-7.30311
▁So	-7.30483
▁his	-7.30994
▁হয়েছে	-7.31525
▁কাজ	-7.31954
▁যাও	-7.33079
▁gonna	-7.3349
▁জানি	-7.33557
▁হচ্ছে	-7.33745
▁would	-7.33871
▁মা	-7.34051
প	-7.34484
)	-7.34935
▁কে	-7.36378
▁(	-7.36937
▁good	-7.37106
▁need	-7.37328
▁come	-7.37454
al	-7.39234
▁Okay	-7.39366
▁an	-7.39955
▁সময়	-7.40486
▁এ	-7.40748
▁ওহ	-7.40832
▁did	-7.42165
▁চাই	-7.42871
▁our	-7.43314
▁Well	-7.4372
▁down	-7.43807
▁শেষ	-7.43833
▁S	-7.44039
▁শুধু	-7.44168
▁কাছে	-7.44658
▁How	-7.44675
▁খুব	-7.45196
দের	-7.45294
▁she	-7.45569
▁বাবা	-7.46251
▁Yes	-7.4668
▁take	-7.46841
▁কোথায়	-7.46923
or	-7.48955
▁..	-7.48997
▁দাও	-7.49191
▁যেতে	-7.50474
▁হ্যা	-7.50759
▁man	-7.50859
লে	-7.51026
▁একজন	-7.51358
g	-7.51942
▁নয়	-7.53152
▁করছি	-7.53431
▁তাদের	-7.5353
▁were	-7.53708
▁৷	-7.53772
ছে	-7.54217
ar	-7.54418
▁been	-7.5443
▁Let	-7.55701
▁has	-7.56165
▁There	-7.56283
▁করবে	-7.58091
▁যা	-7.58211
▁ভাল	-7.583
▁could	-7.58748
▁অ	-7.59811
টি	-7.6039
▁দিয়ে	-7.60414
l	-7.60744
▁She	-7.60955
▁way	-7.6105
▁করি	-7.61407
জ	-7.61563
▁make	-7.62071
h	-7.62263
▁বলতে	-7.62321
▁যাবে	-7.62346
▁All	-7.62445
হ	-7.63122
▁বা	-7.63279
শ	-7.63746
▁পারে	-7.64899
▁ধন্যবাদ	-7.64993
▁Do	-7.65608
▁or	-7.65874
▁পারি	-7.66044
▁সেটা	-7.66334
▁?	-7.66568
▁If	-7.66926
▁Why	-7.67843
দ	-7.68089
▁ওকে	-7.68429
▁দেখতে	-7.69136
▁My	-7.70189
▁who	-7.70239
▁Don	-7.7074
▁আ	-7.71041
▁ওটা	-7.71235
▁something	-7.71253
▁দেখা	-7.71693
▁some	-7.71837
▁Where	-7.72577
▁যখন	-7.72777
বে	-7.73415
▁নাম	-7.73665
▁tell	-7.74584
▁how	-7.74838
▁had	-7.75082
▁তা	-7.75575
▁Now	-7.7594
▁Get	-7.76387
চ	-7.76581
w	-7.76627
le	-7.76909
▁কর	-7.7707
▁when	-7.77564
▁say	-7.77601
▁গেছে	-7.77955
▁Mr	-7.78184
▁মত	-7.78309
▁করার	-7.78418
▁একটু	-7.78546
▁হতে	-7.78862
▁more	-7.7901
▁ঐ	-7.79199
ার	-7.79404
es	-7.79525
▁আগে	-7.79572
▁মানুষ	-7.80007
▁সাহায্য	-7.80148
▁over	-7.80671
▁নি	-7.81181
▁off	-7.82662
en	-7.83242
▁চলো	-7.83687
▁too	-7.83815
▁only	-7.83918
▁didn	-7.84177
▁love	-7.84498
▁স্যার	-7.84812
▁বের	-7.85316
তা	-7.85762
▁মধ্যে	-7.85923
▁little	-7.86192
▁look	-7.86203
ভ	-7.86757
▁should	-7.86838
▁am	-7.86934
▁ফিরে	-7.87089
িত	-7.87184
▁Go	-7.87244
▁let	-7.87269
▁চলে	-7.8742
▁♪	-7.87756
I	-7.87809
ছি	-7.88511
▁তিনি	-7.89084
▁sir	-7.89924
ড	-7.89979
it	-7.90282
্য	-7.90378
▁P	-7.9051
▁never	-7.90584
▁যায়	-7.90671
▁C	-7.91144
ic	-7.91395
▁কেউ	-7.92603
ণ	-7.92843
▁okay	-7.92853
▁বিশ্বাস	-7.92856
▁দুঃখিত	-7.94014
▁হল	-7.94105
k	-7.94197
▁by	-7.94442
▁doing	-7.94553
▁much	-7.9471
▁বলে	-7.9495
▁Your	-7.95097
▁where	-7.95485
▁help	-7.95648
▁Just	-7.95649
▁really	-7.95695
▁Who	-7.95704
f	-7.9589
▁re	-7.96575
▁আচ্ছা	-7.96596
▁Look	-7.966
▁ওর	-7.96607
গুলো	-7.96822
▁find	-7.97074
▁Are	-7.98
▁দিকে	-7.98121
লো	-7.98192
ur	-7.98447
▁যাচ্ছে	-7.98674
▁B	-7.98973
▁বন্ধ	-7.99298
▁প্র	-7.99395
▁বি	-7.99625
গ	-7.99756
ঁ	-7.99864
ri	-8.00368
▁two	-8.00787
▁people	-8.01231
▁then	-8.0146
▁any	-8.01691
▁কিভাবে	-8.01742
▁thing	-8.01871
▁তোমরা	-8.02024
S	-8.02101
য়ে	-8.02867
▁আপনাকে	-8.03273
▁very	-8.03762
▁পারবে	-8.03842
▁into	-8.03917
উ	-8.04018
▁যাচ্ছি	-8.04952
▁দিতে	-8.05095
▁ব	-8.05293
▁মানে	-8.05366
মা	-8.05434
ation	-8.05591
▁give	-8.05884
▁Please	-8.06092
লা	-8.06231
ion	-8.06344
▁name	-8.06354
▁সবাই	-8.07046
বো	-8.07053
▁f	-8.07103
▁শুরু	-8.07146
▁আবার	-8.0718
কা	-8.07204
ঃ	-8.0739
▁দরকার	-8.07677
▁still	-8.07944
বি	-8.08329
▁পর	-8.08619
▁আসলে	-8.08837
▁দিন	-8.08858
▁day	-8.08871
E	-8.08937
▁উপর	-8.09028
an	-8.09351
▁p	-8.09442
▁why	-8.09843
তো	-8.09853
▁sorry	-8.10925
লি	-8.11468
▁তোমাদের	-8.11754
▁must	-8.11755
▁work	-8.12762
▁অন্য	-8.12817
▁life	-8.12869
▁ওই	-8.1294
▁বলছি	-8.14111
▁home	-8.14286
se	-8.14573
▁বছর	-8.14668
▁mean	-8.1481
▁world	-8.14852
▁তুই	-8.14853
▁বড়	-8.15237
▁এমন	-8.15373
▁আজ	-8.15591
▁দেখো	-8.16074
▁said	-8.17461
▁জানো	-8.1812
িক	-8.18447
▁God	-8.18665
▁অবশ্যই	-8.18734
িয়ে	-8.18769
▁father	-8.18941
▁these	-8.19042
▁সেই	-8.19171
ra	-8.19718
li	-8.19937
▁Thank	-8.20581
ং	-8.20641
্র	-8.20685
▁বন্ধু	-8.20922
▁first	-8.21049
▁করেছে	-8.21598
at	-8.21636
▁নাকি	-8.21701
un	-8.21818
il	-8.21823
▁করছে	-8.22232
▁করেছি	-8.226
▁W	-8.22689
▁long	-8.22796
▁than	-8.22866
▁T	-8.2329
▁চেষ্টা	-8.23515
্যা	-8.24406
▁পরে	-8.24478
য়া	-8.24529
▁ধরে	-8.24702
▁আসো	-8.24804
▁again	-8.25393
▁place	-8.25473
রি	-8.26145
▁their	-8.2654
th	-8.26689
▁পার	-8.26709
▁Can	-8.26796
▁বেশি	-8.26819
▁স	-8.26997
▁খারাপ	-8.27007
▁হাত	-8.27308
▁even	-8.27404
▁ছেলে	-8.27432
▁পছন্দ	-8.27655
▁Not	-8.27794
us	-8.27902
▁এটাই	-8.28153
▁years	-8.28349
▁কারণ	-8.2882
কি	-8.29255
▁ড	-8.29296
on	-8.29671
▁সুন্দর	-8.29886
▁নিজের	-8.30188
la	-8.30386
ce	-8.30795
te	-8.31085
▁হেই	-8.31135
▁চাও	-8.31294
▁চিন্তা	-8.31298
ভাবে	-8.31549
▁Good	-8.31636
বা	-8.31753
রে	-8.31922
▁won	-8.31985
বার	-8.32039
▁away	-8.32162
▁করব	-8.32167
▁আছি	-8.32218
▁জিনিস	-8.32579
▁আরে	-8.3362
▁ওরা	-8.3388
স্ট	-8.34116
▁লোক	-8.34247
▁call	-8.34297
▁Hello	-8.34381
ফ	-8.34573
▁মারা	-8.34755
▁other	-8.34794
▁এখনো	-8.34809
▁coming	-8.34868
মি	-8.34888
▁believe	-8.35537
▁মতো	-8.36017
▁For	-8.36164
লাম	-8.3623
▁L	-8.36457
ir	-8.36531
▁থাকে	-8.36635
▁দেখে	-8.3706
▁stop	-8.37207
▁বল	-8.3747
▁সমস্যা	-8.37568
▁sure	-8.37569
▁সা	-8.37685
ছ	-8.37892
▁anything	-8.37921
▁কিছুই	-8.38251
▁son	-8.3862
▁নতুন	-8.38644
▁keep	-8.38646
সে	-8.38724
▁টাকা	-8.38911
▁those	-8.39008
▁কেমন	-8.39008
ড়া	-8.39037
▁তারপর	-8.3905
▁বলো	-8.39148
▁নাও	-8.39205
▁because	-8.39425
▁করবো	-8.39532
▁last	-8.40117
ent	-8.4084
▁দয়া	-8.40876
▁kill	-8.41128
▁please	-8.41218
▁thought	-8.41387
▁ভয়	-8.41599
তি	-8.42128
▁ই	-8.4226
▁কত	-8.42358
▁Did	-8.42359
িং	-8.42429
ধ	-8.42998
▁leave	-8.43097
▁থাকবে	-8.43117
▁পা	-8.43227
▁ভুল	-8.43667
ge	-8.43811
el	-8.43841
▁দেখ	-8.44113
▁things	-8.4412
▁ever	-8.44126
▁বুঝতে	-8.44273
▁সত্যি	-8.44414
▁Dad	-8.44683
is	-8.44859
id	-8.44904
▁old	-8.45147
▁talk	-8.45152
est	-8.45198
A	-8.45425
▁করুন	-8.45431
▁hear	-8.45683
▁before	-8.4579
▁made	-8.45821
ক্ষ	-8.45842
▁জীবন	-8.45902
▁well	-8.46044
ষ	-8.46088
."	-8.46232
আমি	-8.4627
▁boy	-8.46507
▁after	-8.46573
ড়	-8.47142
▁ক	-8.47244
▁নিচে	-8.47383
▁সেখানে	-8.47515
নো	-8.48088
▁told	-8.48163
▁যেটা	-8.48248
ers	-8.48399
ch	-8.48693
▁প	-8.48901
▁G	-8.49208
▁নিতে	-8.49257
▁কখনো	-8.49489
▁done	-8.49557
▁কিন্ত	-8.49596
▁মি	-8.49998
▁ওখানে	-8.50081
▁kind	-8.50174
▁নিশ্চিত	-8.50176
▁better	-8.50217
▁left	-8.50581
▁প্রয়োজন	-8.50581
▁One	-8.51075
▁everything	-8.51403
▁ফ	-8.51472
▁যাই	-8.51766
▁put	-8.51817
ate	-8.52343
▁ম	-8.52397
▁does	-8.52411
▁এত	-8.52437
ter	-8.52553
▁দুই	-8.52699
▁তখন	-8.52706
and	-8.52741
ায়	-8.53353
▁In	-8.53677
▁পর্যন্ত	-8.53908
▁ছেড়ে	-8.53908
D	-8.54048
▁great	-8.5431
কার	-8.54433
▁কোনো	-8.54587
▁E	-8.54588
ol	-8.54888
▁বে	-8.54891
▁Hi	-8.55349
ies	-8.55544
▁লাগবে	-8.55614
▁guy	-8.55679
▁To	-8.55703
▁end	-8.5582
টে	-8.55905
▁খুবই	-8.56104
L	-8.56432
▁তৈরি	-8.56478
▁খুঁজে	-8.56478
▁night	-8.56479
▁new	-8.56515
▁girl	-8.5653
▁থাকো	-8.56542
▁সম্পর্কে	-8.56582
▁die	-8.56777
et	-8.57381
z	-8.57481
▁own	-8.57792
▁পারবো	-8.57903
▁fucking	-8.57946
ting	-8.58056
▁car	-8.58105
▁কা	-8.58272
সা	-8.58559
▁এসব	-8.5877
▁থাকতে	-8.58784
টার	-8.58884
▁doesn	-8.58897
▁Here	-8.58949
▁প্রথম	-8.59214
ment	-8.59334
H	-8.59516
▁প্লিজ	-8.59562
▁হ্যালো	-8.59664
▁জায়গা	-8.59906
▁through	-8.6001
▁Be	-8.60608
ty	-8.60617
▁feel	-8.60663
▁As	-8.60794
▁করছ	-8.60909
▁Dr	-8.60923
▁always	-8.61368
O	-8.61582
▁around	-8.61907
▁D	-8.621
▁un	-8.62196
▁F	-8.62441
v	-8.62565
▁When	-8.62744
▁stay	-8.62769
▁lot	-8.63046
▁সত্যিই	-8.63111
▁জর্জ	-8.63207
▁ছোট	-8.63215
▁হলে	-8.63422
▁understand	-8.63672
হা	-8.63716
▁মিনিট	-8.63756
me	-8.63873
▁ma	-8.63885
um	-8.6402
T	-8.64124
▁১	-8.64211
▁every	-8.64275
▁real	-8.64457
ন্ত	-8.64474
▁Wait	-8.64608
▁সবসময়	-8.64626
▁করবেন	-8.64672
ul	-8.64684
▁friend	-8.64811
ne	-8.64813
▁three	-8.65081
▁এটি	-8.65252
▁হয়তো	-8.6529
lo	-8.65469
▁মাথা	-8.65474
▁money	-8.65554
▁nothing	-8.65556
▁Right	-8.65562
▁এসো	-8.65569
নে	-8.65997
▁course	-8.6603
▁বাইরে	-8.66041
▁ask	-8.66212
▁আসছে	-8.66247
▁জান	-8.66444
ng	-8.66554
▁আরো	-8.66556
▁ওদের	-8.66582
▁Then	-8.66663
▁মেয়ে	-8.66799
am	-8.66855
▁George	-8.6699
▁w	-8.67001
▁মেরে	-8.67013
▁Take	-8.67013
▁bad	-8.67135
▁পারো	-8.67141
▁ga	-8.67215
▁ছিলো	-8.67219
▁বাড়ি	-8.6723
নের	-8.67629
sh	-8.67662
▁হাতে	-8.67775
▁mind	-8.67999
▁happened	-8.68065
▁dead	-8.68446
▁live	-8.685
▁বেশ	-8.68707
▁ক্যাপ্টেন	-8.68936
▁Stop	-8.68944
▁ফোন	-8.68968
▁অপেক্ষা	-8.69313
▁প্রতি	-8.69407
▁ব্যাপার	-8.69892
▁show	-8.69935
্ম	-8.69976
▁move	-8.69993
▁তিন	-8.7027
ist	-8.70731
ন্ড	-8.70914
▁সবকিছু	-8.71148
▁enough	-8.7193
▁দু	-8.72144
▁আসবে	-8.7219
েন	-8.72363
▁শুনতে	-8.72525
ive	-8.7257
na	-8.72617
স্ত	-8.72628
▁mother	-8.72953
ছো	-8.73298
ry	-8.73404
▁guys	-8.73409
▁তোর	-8.7348
সি	-8.73584
েই	-8.74039
▁জানেন	-8.74172
▁remember	-8.74493
▁ছিলাম	-8.74771
▁ব্যাপারে	-8.74831
▁head	-8.74855
▁পেয়েছি	-8.74983
▁লাগছে	-8.75014
▁Captain	-8.75015
টাকে	-8.75057
▁সামনে	-8.75162
▁ভাই	-8.75201
op	-8.75445
able	-8.75498
▁যাক	-8.76144
▁যাওয়া	-8.76237
▁d	-8.76564
▁মজা	-8.76658
▁ছাড়া	-8.76693
াল	-8.76816
▁দিয়েছে	-8.7715
▁হলো	-8.77368
▁পৃথিবী	-8.77552
▁gotta	-8.77731
জন	-8.77826
▁st	-8.77894
ow	-8.77968
ha	-8.78041
▁O	-8.78143
▁war	-8.78172
▁M	-8.78439
▁রাতে	-8.78712
as	-8.78755
▁এগুলো	-8.78903
▁found	-8.79281
▁চায়	-8.79485
▁যান	-8.79501
▁K	-8.79623
▁যেন	-8.79677
জা	-8.79803
▁Mom	-8.79981
▁trying	-8.80023
▁পড়ে	-8.80175
▁টা	-8.80181
▁wait	-8.8068
▁talking	-8.80731
--	-8.80916
▁পেতে	-8.8103
▁এখান	-8.8105
য়ার	-8.81083
0	-8.81142
ির	-8.81437
▁[	-8.81485
▁আশা	-8.81516
▁পুরো	-8.81522
▁চোখ	-8.81679
ডা	-8.81716
এ	-8.82138
▁may	-8.82177
পা	-8.82301
▁জ	-8.82405
to	-8.82416
tion	-8.82444
▁wrong	-8.82606
▁একদম	-8.82606
▁Uh	-8.82617
ant	-8.82718
▁এসেছে	-8.8314
▁উচিত	-8.83171
▁bring	-8.83171
▁run	-8.83216
▁getting	-8.83333
▁স্	-8.83563
টাই	-8.83597
▁hand	-8.83711
▁looking	-8.83893
▁co	-8.83946
▁another	-8.8431
▁might	-8.84314
C	-8.84339
▁জানতে	-8.84456
▁পারব	-8.8461
▁care	-8.85286
▁দরজা	-8.85463
▁ready	-8.86104
▁con	-8.86127
▁আসতে	-8.86149
ine	-8.86536
▁হোক	-8.86681
▁de	-8.86804
▁কম	-8.86808
x	-8.87268
▁H	-8.87448
▁অবস্থা	-8.87593
ছিল	-8.87633
▁Re	-8.87858
▁যেখানে	-8.87882
▁জা	-8.87901
▁বাচ্চা	-8.87958
ূ	-8.88229
▁came	-8.88381
▁জ্যাক	-8.88404
▁একা	-8.88468
up	-8.88743
ight	-8.88822
▁many	-8.88875
▁গুলি	-8.88957
▁২	-8.88974
▁জনাব	-8.89014
ING	-8.89065
▁ডাক	-8.89188
▁হা	-8.89197
▁চেয়ে	-8.89362
▁ch	-8.8945
▁ল	-8.89546
▁open	-8.89606
▁idea	-8.89623
▁এবার	-8.89714
▁হও	-8.89737
ুন	-8.89825
▁চান	-8.89985
▁আহ	-8.89997
ity	-8.90219
থ	-8.90734
জি	-8.90787
▁চা	-8.90798
▁Sorry	-8.90821
দিন	-8.90826
মান	-8.90887
▁best	-8.90997
আ	-8.91044
▁এসে	-8.91192
▁থাক	-8.91248
▁হ	-8.91292
▁ন	-8.91388
▁Because	-8.91488
▁কার	-8.91862
▁মার	-8.91897
মে	-8.91935
▁কারন	-8.91947
▁সবচেয়ে	-8.92057
▁use	-8.92136
▁Have	-8.92215
▁eyes	-8.92578
▁yeah	-8.92674
▁human	-8.92676
প্র	-8.92679
▁big	-8.92684
▁হে	-8.92849
ান	-8.92887
▁মাত্র	-8.92899
▁বিয়ে	-8.92922
co	-8.92934
▁চল	-8.92947
▁যাব	-8.93009
vi	-8.93024
▁যত	-8.93072
▁next	-8.93298
▁kid	-8.93515
age	-8.93878
▁door	-8.94051
G	-8.94136
ac	-8.94322
▁এসেছি	-8.94448
▁থামো	-8.94643
▁মানুষের	-8.94975
তার	-8.94997
▁knew	-8.95197
▁yourself	-8.95197
েল	-8.95226
▁ধর	-8.95736
▁most	-8.95846
▁shit	-8.95872
▁সঙ্গে	-8.95878
▁দেখি	-8.95922
▁wanted	-8.95962
▁উপরে	-8.96114
▁start	-8.96126
ian	-8.96318
▁পারেন	-8.96399
▁Geetha	-8.96483
▁Give	-8.96509
▁তাড়াতাড়ি	-8.96523
শ্বর	-8.96555
▁এটাকে	-8.96567
▁house	-8.96611
▁মে	-8.96896
▁আরও	-8.96986
▁খা	-8.9707
▁lost	-8.97139
▁which	-8.97139
▁fine	-8.9718
▁অ্যা	-8.97332
▁যাবো	-8.97357
▁হাই	-8.97476
▁বলা	-8.97507
ভা	-8.97719
R	-8.97722
▁মন	-8.97807
▁Of	-8.98105
▁মিস	-8.98411
▁matter	-8.9845
▁bit	-8.98976
M	-8.99029
▁check	-8.99106
▁বার	-8.99134
▁পাচ্ছি	-8.99284
▁করলে	-8.99786
▁seen	-8.99867
▁c	-9.00126
▁listen	-9.002
ta	-9.00322
▁minutes	-9.00393
ডি	-9.00394
গা	-9.00433
▁Charlie	-9.00444
▁রোবট	-9.00464
ুক	-9.00499
▁জন	-9.00764
▁দেয়	-9.00896
ec	-9.00955
▁পাবে	-9.00992
▁কেবল	-9.01147
1	-9.01179
▁without	-9.0122
▁whole	-9.01277
▁এটার	-9.01625
▁আপনাদের	-9.018
কর	-9.01847
▁ফেলে	-9.01996
▁gone	-9.02001
5	-9.02063
▁পে	-9.02083
▁পাগল	-9.0242
▁else	-9.02486
▁brother	-9.02487
▁l	-9.02493
আর	-9.02655
▁fuck	-9.02727
▁শ	-9.02737
▁রে	-9.02918
▁ভ	-9.02991
▁sh	-9.0303
man	-9.03039
ther	-9.03051
▁ফেল	-9.03059
▁Frank	-9.03175
ঙ্ক	-9.03177
▁being	-9.03222
▁10	-9.03237
▁Sir	-9.03316
ুর	-9.03507
▁eat	-9.03643
▁try	-9.03691
ance	-9.03746
2	-9.0384
▁যাওয়ার	-9.03912
▁প্রায়	-9.03924
▁বাকি	-9.03972
▁hold	-9.04052
▁শুন	-9.04386
▁আসছি	-9.04547
▁গাড়ি	-9.04561
▁দ্রুত	-9.04568
▁মৃত্যু	-9.04569
▁শুভ	-9.04579
ish	-9.04609
▁Ha	-9.04687
▁আছো	-9.04711
▁Ro	-9.0477
oo	-9.04937
▁called	-9.04997
he	-9.05168
▁family	-9.05273
▁hard	-9.05276
▁saw	-9.05284
▁মিঃ	-9.05328
▁থাম	-9.05339
খ	-9.05413
ap	-9.05575
▁today	-9.05616
ie	-9.05863
▁Tell	-9.05982
▁র	-9.06082
▁took	-9.06108
▁On	-9.06166
▁জানা	-9.06256
▁সোনা	-9.0682
াই	-9.07141
্ব	-9.07208
▁দেখেছি	-9.07366
▁Listen	-9.07415
▁Maybe	-9.0742
▁hell	-9.07455
▁এখনও	-9.07651
▁হারিয়ে	-9.07668
▁তাঁর	-9.07769
▁গ	-9.07799
▁জি	-9.08034
▁Or	-9.0809
▁জলদি	-9.08143
▁হয়েছিল	-9.08293
ঙ্গ	-9.08431
তাম	-9.08625
▁save	-9.08635
▁আসল	-9.0866
▁r	-9.08677
▁nice	-9.08871
▁উ	-9.08875
P	-9.08892
▁দিচ্ছি	-9.08974
▁করেছ	-9.09045
▁রি	-9.09046
িস	-9.09059
4	-9.09198
▁কো	-9.0932
▁দ	-9.09542
▁দেয়া	-9.09595
▁daughter	-9.09605
▁ফ্র্যাঙ্ক	-9.09605
▁রয়েছে	-9.09663
▁yet	-9.09771
▁আসে	-9.09934
জে	-9.09976
▁ভুলে	-9.09985
▁যারা	-9.1008
▁পাই	-9.10104
▁সু	-9.10149
▁already	-9.10346
▁wish	-9.10365
▁খাবার	-9.10374
da	-9.10496
7	-9.10728
▁fight	-9.1088
▁Ma	-9.10947
▁dis	-9.11026
▁কাউকে	-9.11092
▁নিজেকে	-9.112
োর	-9.11535
em	-9.11704
▁same	-9.11844
▁উত্তর	-9.11844
▁hope	-9.11928
ড়ে	-9.12016
▁দেবে	-9.12029
not	-9.12075
▁জন্যে	-9.12185
▁দূরে	-9.12286
▁পথ	-9.12303
ক্স	-9.12434
▁প্রস্তুত	-9.12602
▁খবর	-9.12602
ho	-9.12822
▁আমিও	-9.12979
ছিলাম	-9.12984
▁See	-9.13169
▁পারছি	-9.13346
▁job	-9.13365
▁trust	-9.13365
▁জানে	-9.13374
▁pay	-9.13381
▁এরকম	-9.13414
ীর	-9.13466
▁জায়গায়	-9.13559
ছেন	-9.13832
▁৩	-9.1404
ড়ি	-9.14088
▁বেঁচে	-9.14134
ver	-9.14179
▁করছেন	-9.14253
▁বসে	-9.14428
▁পাওয়া	-9.14447
▁Thanks	-9.14554
▁ago	-9.14612
▁দা	-9.14888
▁problem	-9.1491
▁হয়নি	-9.14917
▁soon	-9.15132
▁meet	-9.15229
ness	-9.15233
ard	-9.15475
▁turn	-9.15477
▁চ	-9.15614
▁wife	-9.15691
▁days	-9.15883
▁sp	-9.15938
▁ex	-9.16072
িয়া	-9.16139
▁কু	-9.16169
▁alone	-9.16479
▁পুলিশ	-9.16479
▁সুযোগ	-9.16482
▁under	-9.16492
▁দাঁড়াও	-9.16529
▁year	-9.166
▁Whoa	-9.16714
দা	-9.16744
লার	-9.1675
▁ফা	-9.1676
▁পড়	-9.16875
▁ba	-9.16904
▁গিয়ে	-9.16921
▁খেলা	-9.1701
▁An	-9.17044
▁কল	-9.1721
▁tonight	-9.17274
▁uh	-9.17276
▁fire	-9.17283
po	-9.1732
▁point	-9.17402
ষ্ট	-9.17422
▁পানি	-9.17452
▁মর	-9.17478
কো	-9.17592
▁আছ	-9.17608
▁বেলা	-9.17708
▁heard	-9.17912
াত	-9.18015
▁ভিতরে	-9.18066
▁অথবা	-9.18072
▁উচিৎ	-9.18072
▁face	-9.18073
▁রেখে	-9.18139
▁fun	-9.18154
▁রাখতে	-9.18224
▁চেক	-9.18278
▁five	-9.18315
▁Ah	-9.18364
▁শক্তি	-9.18412
▁পরি	-9.1842
ff	-9.18803
▁আসা	-9.18821
▁মাঝে	-9.18878
▁story	-9.18878
▁তুমার	-9.18878
▁Help	-9.1888
▁someone	-9.18909
▁set	-9.1892
▁pro	-9.19036
▁inside	-9.19048
▁men	-9.19062
▁যুদ্ধ	-9.19269
B	-9.19387
▁যাতে	-9.19492
▁শান্ত	-9.19516
শা	-9.19516
mi	-9.19644
▁j	-9.1967
▁pretty	-9.19691
▁স্ত্রী	-9.19691
▁together	-9.19692
▁হাজার	-9.19692
▁চুপ	-9.19803
▁মো	-9.19824
▁গেলে	-9.19897
▁একবার	-9.19908
▁করছো	-9.19927
▁ডি	-9.19965
▁গিয়েছে	-9.19995
▁রাখ	-9.202
তুমি	-9.20247
▁Me	-9.20359
▁বয়স	-9.2045
▁safe	-9.20496
▁গল্প	-9.20511
▁লাগে	-9.20511
▁Hold	-9.20518
▁Max	-9.20527
di	-9.20598
▁ha	-9.20686
▁গেছি	-9.20846
"?	-9.21036
শি	-9.21171
▁সম্ভব	-9.21259
▁everyone	-9.2135
▁কষ্ট	-9.21361
▁went	-9.21406
▁আয়	-9.2159
ue	-9.21698
ling	-9.21734
▁De	-9.21763
ast	-9.22127
▁জো	-9.22166
▁প্রশ্ন	-9.22171
▁ব্যবহার	-9.22171
▁বলেছি	-9.22179
▁বলবে	-9.22196
▁নিশ্চয়ই	-9.22252
▁J	-9.22264
▁পি	-9.22356
▁ইয়া	-9.22421
▁শি	-9.22523
8	-9.22742
▁বাবার	-9.22855
▁করেন	-9.22934
▁কয়েক	-9.22994
▁Excuse	-9.23011
▁দিবে	-9.23027
▁gun	-9.23121
▁কীভাবে	-9.23183
▁সবার	-9.23418
▁heart	-9.23456
▁bu	-9.23457
ন্দ	-9.23594
▁গা	-9.23722
▁গেল	-9.23796
ৎ	-9.23831
▁myself	-9.23859
▁worry	-9.23859
▁খুশি	-9.23864
▁second	-9.23874
▁গাছ	-9.23901
▁ছাড়	-9.23931
০	-9.24009
চার	-9.24202
▁সবাইকে	-9.24415
▁যার	-9.24579
▁যথেষ্ট	-9.24713
▁few	-9.24714
▁question	-9.24716
▁ওয়েল	-9.24761
মাত্র	-9.25079
▁power	-9.25568
▁আঘাত	-9.25575
▁হিসেবে	-9.25575
▁water	-9.25576
ted	-9.25665
▁far	-9.25821
ure	-9.25925
▁এতো	-9.25961
▁দেওয়া	-9.25962
ছা	-9.2599
রো	-9.26018
▁killed	-9.2607
▁মুখ	-9.26083
▁ব্যা	-9.26108
▁3	-9.26126
▁টি	-9.26161
q	-9.26288
▁Will	-9.26325
▁morning	-9.26445
de	-9.2645
▁order	-9.26487
▁minute	-9.26512
du	-9.26575
▁গু	-9.26585
end	-9.26742
চ্ছ	-9.26933
▁working	-9.27222
▁guess	-9.27322
▁চার্লি	-9.27328
▁ম্যান	-9.27491
িন	-9.27499
▁mo	-9.2751
▁খেল	-9.27577
▁সহজ	-9.27626
গ্র	-9.2782
▁once	-9.27938
▁play	-9.27956
১	-9.27977
]	-9.27987
▁V	-9.27994
▁control	-9.28207
▁wanna	-9.28207
▁four	-9.28234
▁উনি	-9.28298
▁বলেছে	-9.28397
▁ভা	-9.28406
▁কোড	-9.28536
▁light	-9.2869
▁g	-9.28695
▁close	-9.28776
▁আস	-9.288
▁rest	-9.28869
▁children	-9.29101
▁hurt	-9.29101
▁রক্ষা	-9.29106
▁His	-9.29115
▁জানতাম	-9.29121
▁আপ	-9.29235
▁R	-9.29247
▁room	-9.29314
low	-9.2973
▁আপনারা	-9.29748
▁দেখছি	-9.29759
▁business	-9.30001
▁With	-9.30001
▁clear	-9.30001
▁send	-9.3002
ip	-9.30161
▁blood	-9.30229
ence	-9.30247
▁পাঠা	-9.3032
▁hands	-9.30363
▁শোন	-9.3037
▁উঠ	-9.30377
▁কাম	-9.30501
▁নই	-9.30511
be	-9.30562
▁mine	-9.30613
▁ক্যা	-9.30671
▁কাজে	-9.30742
▁Huh	-9.3091
▁ক্ষমা	-9.30912
ন্স	-9.30985
পি	-9.3106
dy	-9.31099
▁5	-9.31191
▁হওয়ার	-9.31396
▁চালা	-9.31601
লেন	-9.3165
▁একে	-9.31745
▁afraid	-9.31827
▁phone	-9.31827
▁খোদা	-9.31828
▁যেমন	-9.31831
▁cr	-9.31831
▁late	-9.31839
▁maybe	-9.31843
ত্র	-9.31854
▁Stay	-9.32004
▁আমাদেরকে	-9.32115
▁দল	-9.32216
ন্ট	-9.32272
▁ra	-9.32553
ous	-9.32583
▁থাকা	-9.32612
▁la	-9.32649
▁চমৎকার	-9.32753
▁ইচ্ছা	-9.32754
▁sleep	-9.32757
▁half	-9.32757
▁Keep	-9.32762
▁body	-9.32762
▁নে	-9.32844
▁চার	-9.32844
▁k	-9.32993
▁saying	-9.32995
▁ship	-9.33007
▁hit	-9.3318
▁used	-9.33241
▁N	-9.33245
যা	-9.33266
▁friends	-9.33281
ab	-9.33343
অ	-9.33512
▁বলি	-9.33612
▁Our	-9.33748
▁খুজে	-9.33772
▁ধরো	-9.33832
▁change	-9.34388
▁সম	-9.34609
▁সেকেন্ড	-9.34632
▁Nothing	-9.34633
▁touch	-9.34635
▁alive	-9.34636
▁while	-9.34637
▁baby	-9.34639
থা	-9.34654
▁anyone	-9.34658
▁Really	-9.34659
স্ক	-9.34718
▁win	-9.34881
▁একই	-9.34887
চা	-9.34996
▁বস	-9.35033
রকম	-9.35253
্ট	-9.35321
▁watch	-9.35333
▁সপ্তাহ	-9.35584
▁since	-9.35591
ni	-9.35635
▁v	-9.36319
▁happen	-9.36326
sa	-9.3639
▁line	-9.36393
▁রাস্তা	-9.36437
▁এজেন্ট	-9.36545
▁ছবি	-9.36546
▁ভেবেছিলাম	-9.36558
▁নষ্ট	-9.36564
▁ডলার	-9.36576
েজ	-9.37004
▁হওয়া	-9.37084
▁চে	-9.37185
▁land	-9.37186
ক্ত	-9.3741
▁ভাব	-9.37416
েট	-9.37474
▁যৌনসঙ্গম	-9.37516
▁chance	-9.37536
▁দেখুন	-9.37552
▁দাড়াও	-9.37562
প্ত	-9.37567
ত্ত	-9.37591
▁বলেছিলাম	-9.37593
▁রাখো	-9.37628
▁আসলেই	-9.37673
out	-9.37798
সব	-9.38026
▁yes	-9.38051
▁থাকার	-9.38094
▁টে	-9.38265
ভার	-9.38267
N	-9.38297
6	-9.3837
▁থ	-9.38373
▁return	-9.38496
▁অস্ত্র	-9.38496
▁সিদ্ধান্ত	-9.38496
▁Like	-9.385
▁ছিলে	-9.38537
▁Br	-9.38546
▁দেব	-9.38559
▁Mary	-9.38603
▁লা	-9.38922
▁সং	-9.38932
▁কোনও	-9.38954
টো	-9.39068
ary	-9.39317
▁কিনা	-9.39323
▁part	-9.39363
▁চি	-9.39371
▁ঘুম	-9.39456
ick	-9.39458
▁answer	-9.39487
▁school	-9.39487
▁খেয়ে	-9.39487
▁until	-9.39495
▁জানিনা	-9.39623
▁দে	-9.39704
▁খুন	-9.39788
▁bo	-9.39845
▁thank	-9.3991
এটা	-9.39962
▁পরিবার	-9.40134
▁both	-9.40399
▁বলব	-9.40481
▁beautiful	-9.40487
▁জাহাজ	-9.40487
▁উপায়	-9.405
▁ছোট্ট	-9.40508
▁Ra	-9.40593
U	-9.40638
▁boys	-9.40773
▁Sha	-9.41265
▁সত্য	-9.41369
▁ধ্বংস	-9.41497
▁Master	-9.41506
▁মিশন	-9.41514
▁free	-9.41554
▁St	-9.41692
সের	-9.41809
▁এখানেই	-9.41948
▁ভেতরে	-9.41961
▁plan	-9.4225
দিকে	-9.42264
▁ত	-9.42289
▁গীতা	-9.42345
▁তোকে	-9.4237
▁truth	-9.42517
▁dad	-9.42521
▁death	-9.42528
▁জন্ম	-9.42531
▁পিছনে	-9.42612
▁অনু	-9.42657
▁বেশী	-9.4271
▁সি	-9.42754
▁Man	-9.43113
▁রক্ত	-9.43179
▁নাই	-9.43222
▁রাখা	-9.4324
▁Y	-9.43358
মার	-9.43386
▁taking	-9.43548
ALL	-9.43549
▁বলছে	-9.43763
▁আগেই	-9.44089
চি	-9.44297
▁train	-9.44401
▁সারা	-9.44404
ca	-9.44534
▁child	-9.44589
▁speak	-9.4459
▁সঠিক	-9.4461
▁moment	-9.44626
▁দিয়েছি	-9.44695
ীয়	-9.4481
▁huh	-9.44862
▁সকাল	-9.45106
▁হই	-9.45117
▁ধ	-9.45131
▁নিও	-9.45508
▁hours	-9.45627
▁একসাথে	-9.45642
▁Put	-9.45645
▁Father	-9.45649
▁case	-9.45657
▁মেরি	-9.45696
▁এখনই	-9.457
▁dear	-9.45738
▁Move	-9.45745
▁গেলো	-9.45767
▁কখনও	-9.45783
যে	-9.45815
▁sc	-9.45971
go	-9.46077
if	-9.46128
পে	-9.46691
ig	-9.46694
▁পাঁচ	-9.46706
▁such	-9.46706
▁নাম্বার	-9.46707
▁town	-9.46715
▁হুম	-9.46717
▁বলুন	-9.46749
▁চাচ্ছি	-9.46755
▁reason	-9.46818
ial	-9.46947
▁হার	-9.47018
সু	-9.47637
▁o	-9.47642
▁মুন্নি	-9.47781
▁number	-9.47782
▁শব্দ	-9.47783
▁ফিরিয়ে	-9.47796
less	-9.47968
▁ওপর	-9.47994
ck	-9.48067
▁2	-9.48128
▁এতে	-9.48337
▁th	-9.48438
ঠ	-9.48474
▁kids	-9.48519
▁কাল	-9.4883
▁কঠিন	-9.48868
▁পরিষ্কার	-9.48868
▁shot	-9.4887
▁parents	-9.48871
▁true	-9.48876
▁অংশ	-9.48882
▁খালি	-9.48918
▁sent	-9.48923
▁At	-9.49025
ever	-9.49026
▁পেয়ে	-9.49088
▁বিষয়	-9.49098
▁wants	-9.49223
▁পুরা	-9.49251
গো	-9.49569
▁রাত	-9.49651
▁রাজা	-9.49736
tle	-9.49857
fi	-9.49875
নোর	-9.49937
▁Miss	-9.49951
▁brought	-9.49967
▁তথ্য	-9.49967
▁Two	-9.49967
▁তবে	-9.50021
লের	-9.50044
▁supposed	-9.5006
ক্ট	-9.50208
▁১০	-9.50476
চে	-9.50489
▁young	-9.50502
▁These	-9.50503
▁করত	-9.50934
▁এভাবে	-9.50971
▁po	-9.51073
▁Mother	-9.51089
পার	-9.51124
▁Got	-9.5115
▁নিউ	-9.51258
per	-9.51398
▁দেই	-9.51453
ud	-9.5147
▁বছরের	-9.51607
▁Co	-9.51678
▁died	-9.51706
▁বোঝা	-9.51727
▁star	-9.5181
াও	-9.51831
ious	-9.5184
tic	-9.51891
▁যাচ্ছ	-9.51986
▁crazy	-9.52202
▁dream	-9.52202
▁কোথাও	-9.52261
য়ো	-9.52426
▁বলছ	-9.52525
▁মাস	-9.52563
▁উঠে	-9.52704
স্	-9.52707
▁প্রিয়	-9.53104
▁বাহ	-9.53156
▁ta	-9.53213
▁ডান	-9.53315
▁Earth	-9.53338
▁high	-9.53339
3	-9.53357
▁দিব	-9.53372
▁দেরি	-9.53392
য	-9.53503
▁প্রাণী	-9.53549
নার	-9.53786
ia	-9.53806
bo	-9.54152
fa	-9.54269
▁খাওয়া	-9.54389
▁অব	-9.54414
▁Murph	-9.54488
▁anymore	-9.54488
▁stuff	-9.54488
▁system	-9.54488
▁actually	-9.5449
▁চুরি	-9.54504
▁read	-9.54512
▁মু	-9.54534
▁means	-9.54556
▁sit	-9.54567
ful	-9.54621
পর	-9.54803
der	-9.54826
ner	-9.54923
▁20	-9.55004
▁করেছো	-9.55024
চ্ছে	-9.55072
▁স্বপ্ন	-9.55651
▁Hazel	-9.55651
▁পেছনে	-9.55651
▁Jake	-9.55661
▁mission	-9.55681
▁স্বাগতম	-9.55748
▁deal	-9.55774
▁ভাগ্য	-9.55807
▁৫	-9.55834
াম	-9.55923
▁বাড়িতে	-9.56006
▁করেছিলাম	-9.56007
▁পু	-9.5601
▁ভি	-9.56071
▁তর	-9.56367
ble	-9.5655
▁বাস	-9.56569
▁walk	-9.56575
▁e	-9.5661
▁arm	-9.56772
▁tomorrow	-9.56827
▁Three	-9.56827
▁also	-9.56827
▁bank	-9.56828
▁খেতে	-9.56829
▁each	-9.56835
▁thinking	-9.56864
▁হাঁ	-9.5689
▁পেয়েছিলাম	-9.56892
▁এদিকে	-9.56897
র্ত	-9.56966
way	-9.57098
ated	-9.57369
কাল	-9.57371
কারী	-9.57391
মু	-9.57404
▁লি	-9.57565
do	-9.57688
▁কখনোই	-9.57725
▁promise	-9.57772
▁পথে	-9.57819
য়ের	-9.57836
▁নিজে	-9.57919
▁fast	-9.57959
▁Welcome	-9.58018
▁behind	-9.58018
▁অধিকার	-9.58018
▁become	-9.58018
▁হেইজেল	-9.58018
led	-9.58031
▁New	-9.5805
▁জু	-9.58066
▁Neo	-9.58093
আমার	-9.58133
ple	-9.58209
▁ভাবে	-9.58298
ign	-9.58369
এক	-9.58632
▁শা	-9.58942
aw	-9.59048
law	-9.5922
▁robot	-9.59222
▁tree	-9.59226
▁exactly	-9.59233
▁অন	-9.59235
কিছু	-9.5926
▁চালু	-9.59274
K	-9.59321
▁ক্ষমতা	-9.59341
▁sl	-9.59616
ম্ব	-9.59627
▁miss	-9.59674
▁pick	-9.59749
তু	-9.59868
one	-9.59903
▁প্যা	-9.60005
স্তা	-9.60074
You	-9.6015
Y	-9.60441
▁Bailey	-9.60442
▁তৈরী	-9.60442
▁মার্ফ	-9.60442
▁রাজ্য	-9.60459
▁im	-9.60464
▁সেটাই	-9.60593
▁Am	-9.60636
▁জীবনের	-9.60674
চ্ছি	-9.6075
▁Un	-9.60752
▁gra	-9.61023
▁আছেন	-9.6106
▁গো	-9.61067
ach	-9.6123
▁air	-9.61502
গুলি	-9.61577
▁স্ট	-9.61618
▁happy	-9.61676
▁চকলেট	-9.61676
▁অর্থ	-9.61677
▁দুনিয়া	-9.61678
▁game	-9.61729
▁কাটা	-9.61958
▁king	-9.62024
▁says	-9.62314
াব	-9.62528
▁side	-9.6258
▁এখনি	-9.62669
▁ফেলবে	-9.62724
▁Mo	-9.62832
▁easy	-9.62926
▁program	-9.62926
▁woman	-9.62926
▁ধীরে	-9.62926
▁pull	-9.62928
▁catch	-9.62947
্থ	-9.62952
▁ring	-9.62965
▁আগুন	-9.6308
ug	-9.63096
▁cut	-9.63216
▁lose	-9.63237
ept	-9.63292
এর	-9.63298
▁তুমিই	-9.63329
ster	-9.63431
পু	-9.63442
ger	-9.63502
▁ক্র	-9.63663
ally	-9.63703
▁আসার	-9.63781
লাই	-9.63825
াস	-9.64017
▁lie	-9.64045
▁বলার	-9.64062
▁আলাদা	-9.64192
▁ডাক্তার	-9.64192
▁দারুন	-9.64192
▁আনন্দ	-9.64203
▁leg	-9.64203
▁বিশেষ	-9.6421
▁আসুন	-9.64213
▁শুধুমাত্র	-9.64279
▁এমনকি	-9.64305
▁শোনো	-9.64336
▁করলাম	-9.64348
▁later	-9.64368
▁মাফ	-9.64439
▁চুল	-9.64519
▁vi	-9.64659
▁পেরেছি	-9.64673
▁কারো	-9.64686
▁এসেছ	-9.64804
দে	-9.65036
▁শরীর	-9.65089
▁নিরাপদ	-9.65172
for	-9.65176
by	-9.65182
তেই	-9.6524
▁দিলে	-9.65266
▁Peter	-9.65475
▁making	-9.65475
▁ground	-9.65478
▁জীবিত	-9.65483
▁Very	-9.65485
▁lo	-9.65487
▁মিস্টার	-9.65494
▁fall	-9.65499
▁Wow	-9.6554
্স	-9.65611
আপনি	-9.65667
▁ধরতে	-9.65721
▁সরে	-9.65862
▁La	-9.65931
▁hate	-9.65947
▁লড়াই	-9.66135
বাদ	-9.66157
▁আন	-9.66287
▁দশ	-9.66289
▁looks	-9.66527
▁কাছ	-9.66572
▁পায়	-9.6666
▁drive	-9.66666
▁count	-9.66761
দান	-9.66762
▁ঘণ্টা	-9.66773
▁Lord	-9.66773
▁Run	-9.66814
▁Tr	-9.66982
▁Ta	-9.67078
ঞ্জ	-9.67399
িশ	-9.67433
▁কখন	-9.67512
▁tr	-9.67536
▁সাবধান	-9.6779
বেন	-9.67854
▁4	-9.67914
ba	-9.67968
▁করেছেন	-9.67997
▁বন্দুক	-9.68089
▁important	-9.68089
▁survive	-9.68089
▁book	-9.6809
▁ক্ষতি	-9.6809
▁shut	-9.6809
▁near	-9.6809
▁drink	-9.68092
দার	-9.68094
▁Cooper	-9.68114
▁ভে	-9.68136
▁নিজেদের	-9.68154
▁দুজন	-9.68216
▁6	-9.68251
▁পরিবর্তন	-9.68252
▁পান	-9.68273
▁মাই	-9.6831
▁full	-9.6846
we	-9.6847
ping	-9.68497
▁বাদ	-9.68502
▁ম্যা	-9.68506
▁ব্যাপারটা	-9.68651
▁times	-9.68724
ward	-9.68769
ade	-9.68811
▁stand	-9.6922
uck	-9.6924
▁তুল	-9.69246
ke	-9.6928
▁ধরা	-9.69288
খানে	-9.69324
ক্ষণ	-9.69362
শন	-9.69383
যুক্ত	-9.6941
▁Everything	-9.69422
▁probably	-9.69422
▁সন্তান	-9.69422
▁bag	-9.69442
▁বোকা	-9.69446
▁পিটার	-9.69455
▁মহিলা	-9.69505
▁মায়ের	-9.69507
ুল	-9.69531
▁ঘর	-9.69533
▁একদিন	-9.69618
স্টার	-9.6966
হ্যাঁ	-9.6968
▁Her	-9.6968
▁মারতে	-9.69759
▁জিন	-9.69779
ton	-9.69822
হু	-9.69955
son	-9.70043
▁sun	-9.70202
▁কাজের	-9.7021
▁পারবেনা	-9.7028
▁দিচ্ছে	-9.70452
▁দি	-9.70469
▁রা	-9.70515
▁এরা	-9.70547
▁sign	-9.70733
▁মৃত	-9.70773
▁পরিকল্পনা	-9.70773
▁break	-9.70774
▁leaving	-9.70774
▁million	-9.70774
▁অদ্ভুত	-9.70774
▁Sure	-9.70869
▁বললে	-9.70889
▁দেবো	-9.70946
▁buy	-9.70962
▁তুলে	-9.71077
ging	-9.7121
▁পো	-9.71344
▁asked	-9.71382
▁শুনে	-9.71397
▁:	-9.71498
ile	-9.71674
▁bot	-9.71681
▁word	-9.71824
▁ট্র	-9.71875
▁মরে	-9.72092
▁six	-9.72143
▁ঘন্টা	-9.72143
▁different	-9.72143
▁trouble	-9.72143
▁অসম্ভব	-9.72143
▁বিদায়	-9.72144
▁black	-9.72147
▁shall	-9.72153
▁সম্ভবত	-9.72274
▁Some	-9.72343
ঠিক	-9.72436
▁started	-9.72614
▁শিখ	-9.72626
▁আই	-9.72656
▁কিসের	-9.72659
▁থাকি	-9.72707
▁কারণে	-9.72835
▁Mor	-9.72898
▁চোখে	-9.73196
নী	-9.73238
▁ভাগ	-9.73305
▁বাল	-9.73353
▁শিকার	-9.73415
▁hey	-9.73498
ঞ্চ	-9.73517
▁almost	-9.73532
▁between	-9.73532
▁doctor	-9.73532
▁ঘা	-9.73532
▁least	-9.73533
▁Even	-9.73533
▁sick	-9.73558
ন্ন	-9.73565
▁scared	-9.73602
▁পেয়েছে	-9.73609
▁বেল	-9.73616
▁সর	-9.73677
cause	-9.73689
▁আরেকটা	-9.73768
কিন্তু	-9.73834
কের	-9.73843
▁সময়ে	-9.73868
▁Does	-9.73885
ack	-9.74
▁en	-9.74025
▁lives	-9.74151
ফা	-9.74219
▁আগের	-9.74222
▁Ba	-9.74368
▁পাওয়ার	-9.74444
▁মেয়েটা	-9.74472
খা	-9.74633
▁week	-9.74653
▁সমস্	-9.74686
▁পাশে	-9.7475
▁সহ	-9.74842
▁নামে	-9.74855
▁ten	-9.74877
▁expect	-9.74941
▁প্রোগ্রাম	-9.74941
▁damn	-9.74941
▁having	-9.74941
▁food	-9.74941
▁kiss	-9.74941
▁Lucas	-9.74943
▁bomb	-9.74944
▁forget	-9.74947
▁লুকাস	-9.74947
▁OK	-9.74959
▁দুটো	-9.74965
▁কুপার	-9.74965
the	-9.75092
▁তাদেরকে	-9.75103
ওয়া	-9.7517
ak	-9.75197
▁এইসব	-9.75286
▁ট্রেন	-9.75303
▁Bella	-9.75334
▁আট	-9.75389
▁হো	-9.75518
র্ণ	-9.75562
ide	-9.75578
▁ওয়াল	-9.75603
▁pre	-9.75604
▁তে	-9.75672
▁হাস	-9.76039
▁লুক	-9.76289
▁choice	-9.76369
▁কাছাকাছি	-9.76369
▁চেহারা	-9.76369
▁আল্লাহ	-9.76369
▁clean	-9.76369
▁আস্তে	-9.7637
▁shoot	-9.7637
▁একেবারে	-9.76371
ণ্ড	-9.76372
▁track	-9.76377
▁grand	-9.76385
▁ধরনের	-9.76408
▁against	-9.76422
মো	-9.76495
cy	-9.76637
২	-9.76692
What	-9.76712
▁telling	-9.76804
▁টাকার	-9.76908
▁করিনি	-9.76982
▁মুক্ত	-9.76986
▁আম	-9.77005
িয়ান	-9.77139
।"	-9.77218
্লি	-9.77265
▁aren	-9.77396
িল	-9.77476
▁ho	-9.77584
▁Fuck	-9.77588
▁ride	-9.77592
▁রেডি	-9.77668
স্প	-9.77703
▁EVE	-9.77818
▁Those	-9.77818
▁Would	-9.77818
▁thousand	-9.77818
▁অনুভব	-9.77818
▁উদ্দেশ্য	-9.77818
▁দ্বিতীয়	-9.77818
▁সামান্য	-9.77818
▁এগিয়ে	-9.77819
▁বিক্রি	-9.77819
▁Grace	-9.77841
▁bar	-9.77858
▁খুলে	-9.77877
00	-9.77959
▁dec	-9.78025
▁May	-9.7806
িতে	-9.78075
ating	-9.78117
F	-9.78144
▁মাথায়	-9.7817
▁বানিয়ে	-9.78173
৷	-9.78183
▁Mum	-9.78187
The	-9.78224
▁able	-9.78765
দি	-9.78779
no	-9.78845
▁ফেলেছি	-9.78857
ক্র	-9.78858
▁9	-9.78895
che	-9.7895
▁এইতো	-9.79006
▁Bu	-9.79007
▁pass	-9.79069
▁Ham	-9.79133
▁নিয়েছি	-9.79176
▁com	-9.79264
▁After	-9.79289
▁small	-9.79289
▁worth	-9.79289
▁দ্বারা	-9.79289
▁হিরো	-9.79296
▁Every	-9.79315
▁লেগেছে	-9.79334
va	-9.79358
▁লোকজন	-9.79359
▁হলাম	-9.79396
▁per	-9.79559
▁থাকলে	-9.79724
▁অভি	-9.7974
ay	-9.79779
কল	-9.79807
▁ahead	-9.79807
ake	-9.79951
ank	-9.80192
our	-9.80279
▁ফি	-9.80346
▁ওয়া	-9.80492
▁য	-9.80494
▁জী	-9.80685
▁যদিও	-9.80739
▁দুঃখ	-9.80743
▁গ্রহ	-9.80749
▁Ajay	-9.80782
▁Houston	-9.80782
▁possible	-9.80782
▁বেইলী	-9.80782
▁Augustus	-9.80786
▁নিয়ম	-9.80795
▁Parker	-9.80804
▁কপি	-9.80819
▁Back	-9.80826
▁লাইন	-9.80828
▁দেখাচ্ছে	-9.80853
W	-9.80881
▁team	-9.80948
▁fly	-9.80989
9	-9.81177
▁খোলা	-9.81194
port	-9.81281
▁সো	-9.81287
▁taken	-9.81479
▁ain	-9.81493
▁গান	-9.81562
▁perfect	-9.81582
▁though	-9.8161
▁ভালোই	-9.81722
▁বলেছ	-9.81792
▁আমিই	-9.81843
▁তাতে	-9.81973
▁পেলে	-9.82004
▁খ	-9.82111
▁girls	-9.82114
▁সাহস	-9.82225
▁witch	-9.82266
▁seconds	-9.82269
▁hundred	-9.82297
▁target	-9.82297
▁Shut	-9.82297
▁Time	-9.82297
▁feet	-9.82297
▁হোমস	-9.82297
▁ধারণা	-9.82297
▁ছয়	-9.82302
▁grow	-9.82309
▁লক্ষ্য	-9.82323
▁ব্যাগ	-9.82356
▁নিন	-9.82447
▁বিলি	-9.82508
▁কেটে	-9.82531
▁উপ	-9.82543
▁ইয়াহ	-9.82602
red	-9.82632
▁hi	-9.82674
▁Ne	-9.82715
(	-9.82728
mon	-9.82761
বী	-9.82808
দ্ধ	-9.8284
▁sea	-9.82915
স্থ	-9.83197
ম্প	-9.83374
▁প্রথমে	-9.83404
▁প্রত্যেক	-9.83491
▁learn	-9.8362
▁ছু	-9.83733
▁police	-9.83835
▁হিউস্টন	-9.83835
▁Nice	-9.83835
▁অজয়	-9.83838
▁drop	-9.83843
▁গন্ধ	-9.83844
▁স্ব	-9.83851
▁হত্যা	-9.83861
▁Make	-9.83864
▁hang	-9.83869
▁পার্কার	-9.83871
▁হয়ত	-9.83915
▁tried	-9.83941
সার	-9.84027
ER	-9.84087
▁]	-9.84221
▁কাট	-9.84271
▁দিক	-9.84389
▁পারলে	-9.84456
▁লাফ	-9.84458
▁বেরিয়ে	-9.84693
▁happens	-9.85004
▁Ho	-9.85117
▁বুঝেছি	-9.85208
▁ঘরে	-9.85267
▁মহা	-9.8529
side	-9.8533
▁protect	-9.85365
▁দোস্ত	-9.85398
▁মিথ্যা	-9.85398
▁dangerous	-9.85401
▁সকল	-9.85432
▁cool	-9.85454
▁মাস্টার	-9.85475
▁সম্মান	-9.85526
ped	-9.85601
▁Um	-9.85637
▁বলবো	-9.85685
বু	-9.85749
▁সেরা	-9.86002
বাস	-9.86411
▁চিন	-9.86477
▁দেখার	-9.86514
,000	-9.86618
▁Pro	-9.86755
টায়	-9.86847
▁হত	-9.86945
▁অনুমতি	-9.86985
▁শক্তিশালী	-9.86985
▁secret	-9.86986
▁magic	-9.86986
▁suit	-9.86996
▁brain	-9.87019
▁Daddy	-9.87024
▁Say	-9.87049
▁station	-9.87089
▁আনতে	-9.87184
day	-9.87216
▁সময়ের	-9.87245
▁Sam	-9.87303
▁২০	-9.87473
গার	-9.87585
ky	-9.87598
▁শান্তি	-9.8765
▁waiting	-9.8771
গু	-9.87778
ev	-9.87794
▁পরী	-9.87826
▁feeling	-9.87871
▁হু	-9.8807
▁needs	-9.88113
▁follow	-9.88128
ত্ব	-9.88218
▁পাবেন	-9.8822
▁সাম	-9.88284
গত	-9.88288
▁জেন	-9.8833
▁red	-9.88421
▁কাজটা	-9.88505
▁কেনো	-9.88522
▁Zeus	-9.88598
▁either	-9.88598
▁ঘটনা	-9.88598
▁যোগাযোগ	-9.88598
▁ভালবাসি	-9.88598
▁attack	-9.88599
▁এটম	-9.88599
▁fact	-9.88601
▁আমায়	-9.8862
▁করেছিল	-9.88639
▁1	-9.8868
▁Was	-9.88715
▁বোন	-9.88945
▁ball	-9.88983
▁নিজেই	-9.89016
▁happening	-9.89019
▁বদলে	-9.8907
▁আলো	-9.89152
ছিলে	-9.89232
▁পাও	-9.8934
▁Gra	-9.89425
ার্ট	-9.89514
▁person	-9.89772
▁Fin	-9.89796
▁খাও	-9.89839
▁বলেন	-9.89866
▁bed	-9.90037
line	-9.90059
ডে	-9.90079
▁মজার	-9.90097
▁দেখাতে	-9.90211
▁mistake	-9.90237
▁জিজ্ঞেস	-9.90237
▁দায়িত্ব	-9.90237
▁সৈন্য	-9.90237
▁জিউস	-9.90238
▁পরীক্ষা	-9.90241
দ্যা	-9.90301
▁অপর	-9.90376
▁ম্যাক্স	-9.90403
▁act	-9.90446
▁রু	-9.90478
রিক	-9.9062
▁হিসাবে	-9.90702
▁দেখলে	-9.90706
▁স্কুলে	-9.90738
▁জন্যই	-9.90751
আমরা	-9.90798
▁mom	-9.9088
▁পালিয়ে	-9.90882
পত্র	-9.91035
▁Mar	-9.91207
eep	-9.91264
▁ওগুলো	-9.91437
ধা	-9.91454
▁ডে	-9.91463
▁Na	-9.91471
▁মাল	-9.9158
ানো	-9.91732
▁luck	-9.91801
ook	-9.91809
▁জল	-9.91893
▁Munni	-9.91904
▁মর্ফিয়াস	-9.91904
▁Open	-9.91904
▁fix	-9.91904
▁আকাশ	-9.91905
▁ভালবাসা	-9.91907
▁living	-9.91908
▁cell	-9.91915
▁country	-9.91925
▁নাচ	-9.91947
▁জায়গাটা	-9.91973
▁বাচ্চাদের	-9.9207
▁কার্ল	-9.92083
rate	-9.92158
▁dog	-9.92184
▁চাইলে	-9.92245
▁রো	-9.9234
▁হ্যাম	-9.92348
▁Al	-9.92365
▁ছিলেন	-9.92443
▁ছেলেটা	-9.92607
▁সুই	-9.92608
▁থেকেই	-9.92829
লী	-9.9291
▁দিনের	-9.92936
▁comes	-9.93118
প্ল	-9.93289
▁mu	-9.9334
কৃত	-9.93567
▁স্থান	-9.93592
▁English	-9.93599
▁Hurry	-9.93599
▁Morpheus	-9.93599
▁Watch	-9.93599
▁দোষ	-9.93599
▁ডক্টর	-9.93599
▁শত্রু	-9.93599
▁funny	-9.93599
▁গুরুত্বপূর্ণ	-9.93601
▁অসাধারণ	-9.93607
▁teach	-9.93611
▁pi	-9.93619
▁hour	-9.93666
▁বাসায়	-9.9369
▁seat	-9.93713
▁খু	-9.93802
▁party	-9.93804
▁ব্য	-9.93805
▁জেনে	-9.93873
▁গীতাকে	-9.93888
▁Carl	-9.93974
গুলা	-9.94079
▁টিম	-9.94113
▁saved	-9.94169
৫	-9.94178
ual	-9.94255
▁ছেলের	-9.94339
▁মধ্যেই	-9.94345
▁লাল	-9.94449
▁গিয়েছিল	-9.94605
বান	-9.94927
▁পারবেন	-9.94979
▁প্রাণ	-9.95004
land	-9.95286
ৈ	-9.95291
▁fell	-9.95315
▁দোকান	-9.95323
▁ভেঙ্গে	-9.95323
▁মাধ্যমে	-9.95323
▁accept	-9.95323
▁front	-9.95323
▁moving	-9.95323
▁মেশিন	-9.95323
▁data	-9.95324
▁পাহাড়	-9.95324
▁along	-9.95324
▁Atom	-9.95325
▁পার্টি	-9.95325
▁জিজ্ঞাসা	-9.95337
▁সোজা	-9.95341
▁quite	-9.95345
▁Brand	-9.95359
▁reach	-9.95378
▁ইভা	-9.95388
▁top	-9.95405
▁শোনা	-9.95418
ring	-9.95421
▁বুদ্ধি	-9.95514
▁careful	-9.95529
▁নিক	-9.95581
▁আসি	-9.9575
বাজ	-9.95817
▁তুমিও	-9.95935
▁জনি	-9.95981
▁পড়েছে	-9.95989
▁কারনে	-9.96277
▁ভেবে	-9.9629
▁30	-9.96392
য়াল	-9.96393
মত	-9.96507
ওয়ার	-9.96549
▁কিছুটা	-9.96561
▁হয়েছি	-9.96572
বল	-9.96635
▁Fe	-9.9666
্যান	-9.96694
এই	-9.96927
▁cur	-9.96952
hich	-9.96957
▁এক্স	-9.96959
▁লেগে	-9.97024
▁নিয়ন্ত্রণ	-9.97077
▁শয়তান	-9.97077
▁couple	-9.97077
▁সতর্ক	-9.97077
▁জ্বি	-9.97078
▁dress	-9.97078
▁ভালোবাসি	-9.97078
▁Mmm	-9.97081
▁অন্ধকার	-9.97084
▁key	-9.97088
▁রাগ	-9.97155
ave	-9.97176
▁ওঠ	-9.97186
▁আটকে	-9.97323
ga	-9.97338
▁Whatever	-9.97371
শে	-9.97404
▁forever	-9.97449
▁born	-9.97486
▁জামা	-9.97549
▁বু	-9.97595
▁আজকে	-9.97651
▁ফেলেছে	-9.97737
▁এদের	-9.97836
▁tu	-9.97922
ze	-9.97946
▁asking	-9.98007
▁বাস্তব	-9.98041
▁months	-9.98072
ible	-9.98076
▁শুনেছি	-9.98252
▁লাভ	-9.98273
j	-9.98305
▁রাখবে	-9.98631
খে	-9.98802
গণ	-9.98821
▁future	-9.98863
▁চুক্তি	-9.98863
▁সন্দেহ	-9.98863
▁piece	-9.98863
▁Great	-9.98864
▁হামলা	-9.98864
▁Wonka	-9.98865
▁running	-9.98865
▁তেমন	-9.98869
▁মাংস	-9.98874
▁নেমে	-9.98889
▁আদেশ	-9.98889
▁Gru	-9.98899
▁Something	-9.98934
▁copy	-9.98963
▁করতাম	-9.98981
▁থাকব	-9.99099
▁mi	-9.99128
▁হ্যারি	-9.99209
▁চালিয়ে	-9.99217
▁সাবধানে	-9.99271
▁লোকটা	-9.99321
▁পৃথিবীতে	-9.99398
▁এরিক	-9.99431
▁আরিয়া	-9.99547
্যাল	-9.99553
▁ধার	-9.99576
ফি	-9.99668
গি	-9.99684
▁চিনি	-9.99734
▁পালা	-9.99785
েড	-9.99951
▁goes	-10.0016
old	-10.0022
▁রুম	-10.0026
▁মিনিটের	-10.0035
গুলোর	-10.0052
▁gr	-10.0059
▁ear	-10.0067
▁করিয়ে	-10.0068
▁পার্ক	-10.0068
▁Christmas	-10.0068
▁everybody	-10.0068
▁marriage	-10.0068
▁কাহিনী	-10.0068
▁দারুণ	-10.0068
▁পুরোপুরি	-10.0068
▁প্ল্যান	-10.0068
▁Johnny	-10.0068
▁choose	-10.0069
▁ticket	-10.0069
▁Never	-10.0071
▁গুহা	-10.0079
▁outside	-10.0083
▁letter	-10.0087
▁দিবো	-10.0087
▁whatever	-10.0092
▁বাবাকে	-10.0105
▁comm	-10.0115
▁পারবনা	-10.0115
▁বন্ধুরা	-10.0116
▁নেবে	-10.012
▁changed	-10.0131
▁গত	-10.0142
ল্যান্ড	-10.0154
▁বই	-10.0203
ock	-10.022
▁seems	-10.0229
ল্লা	-10.0233
জী	-10.0247
ষ্ঠ	-10.0248
▁Baymax	-10.0253
▁First	-10.0253
▁Holmes	-10.0253
▁entire	-10.0253
▁এডওয়ার্ড	-10.0253
▁Harry	-10.0253
▁Arya	-10.0253
▁fear	-10.0253
▁felt	-10.0253
▁write	-10.0254
▁অর্ধেক	-10.0254
▁dying	-10.0254
▁সর্ব	-10.0255
▁বোমা	-10.0255
▁cold	-10.0255
▁Roger	-10.0255
▁eight	-10.0256
▁চোর	-10.0257
tric	-10.0258
▁সাধারণ	-10.0265
head	-10.0266
▁বাজে	-10.0266
ex	-10.0278
সন	-10.028
▁ডেকে	-10.0281
্রে	-10.0282
▁দেখিয়ে	-10.0285
▁বলছেন	-10.03
▁বলেছেন	-10.0308
▁লেখা	-10.032
▁বাজি	-10.0332
▁হাহ	-10.0332
▁মানব	-10.0342
▁তাঁরা	-10.035
▁ভেতর	-10.0356
▁মতই	-10.0356
▁আনা	-10.0358
▁পেয়েছ	-10.0363
ama	-10.0368
▁calling	-10.0388
▁কই	-10.0408
▁Ri	-10.0409
▁চু	-10.0427
▁ঝামেলা	-10.043
▁strong	-10.0432
▁পরের	-10.0434
পোর্ট	-10.0441
পূর্ণ	-10.0442
▁anybody	-10.0442
▁field	-10.0442
▁বেইম্যাক্স	-10.0442
▁sister	-10.0442
▁burn	-10.0442
▁ফেরত	-10.0442
▁ব্যবস্থা	-10.0442
▁নজর	-10.0442
▁ভালোবাসা	-10.0442
▁agent	-10.0443
▁ব্যাংক	-10.0443
▁sense	-10.0443
▁মূল্য	-10.0445
▁ফুল	-10.0447
▁anyway	-10.0447
হীন	-10.0449
▁বাঁচা	-10.0451
েন্ট	-10.0453
▁Fro	-10.0455
▁বানানো	-10.0459
▁বলেছিল	-10.0473
ler	-10.0491
▁past	-10.0497
▁মরতে	-10.0499
▁round	-10.0501
াতে	-10.0508
▁নির্	-10.0522
▁সকালে	-10.0544
কর্ম	-10.0555
▁শো	-10.0558
▁ইন	-10.0563
▁bi	-10.0592
▁অবশ্য	-10.0604
▁নেয়া	-10.0608
▁লাগা	-10.0612
ঢ	-10.0631
▁Jesus	-10.0634
▁Matrix	-10.0634
▁আত্মা	-10.0634
▁ইংলিশ	-10.0634
▁ডাইনোসর	-10.0634
▁Shit	-10.0634
▁পরিচয়	-10.0634
▁Agent	-10.0634
▁00:	-10.0634
▁লুসি	-10.0635
▁Ooh	-10.0635
▁শীঘ্রই	-10.0639
▁মেনে	-10.064
▁জিমি	-10.064
▁রাজি	-10.0646
▁হতো	-10.0656
▁ওয়াও	-10.0658
▁কালো	-10.0667
▁জিনিসটা	-10.068
▁অনেকটা	-10.0689
▁bus	-10.0697
ভো	-10.071
▁বাম	-10.0711
▁স্যাম	-10.0716
V	-10.0717
tain	-10.0734
▁শ্র	-10.0736
ease	-10.0746
itch	-10.0747
ম্যান	-10.076
▁শহর	-10.0762
ey	-10.0773
▁others	-10.0796
▁lead	-10.0806
▁bl	-10.0825
▁গোপন	-10.083
▁Merida	-10.083
▁Nobody	-10.083
▁Richard	-10.083
▁পৌঁছে	-10.083
▁প্ল্যাট	-10.083
▁ম্যাট্রিক্স	-10.083
▁escape	-10.083
▁honor	-10.083
▁বিরক্ত	-10.083
▁আউট	-10.083
▁step	-10.083
▁তাঁকে	-10.083
▁Boy	-10.083
▁নির্দেশ	-10.0831
▁তাকাও	-10.0831
▁blow	-10.0832
▁জাদুকরী	-10.0833
▁Stand	-10.0834
▁city	-10.0835
▁report	-10.0835
No	-10.085
▁রাস্তায়	-10.0854
▁Try	-10.0858
▁cave	-10.0858
▁এলা	-10.0859
▁eye	-10.0861
giving	-10.0866
▁soul	-10.0867
জনক	-10.0869
ঠা	-10.0872
▁কখনই	-10.0877
her	-10.0889
ত্তা	-10.0903
▁গতি	-10.0919
▁Sp	-10.0924
▁এলাকা	-10.0929
▁Li	-10.0929
তোমার	-10.093
ড়িয়ে	-10.0934
▁needed	-10.0952
▁মামা	-10.0964
বিক	-10.0996
tter	-10.1004
▁ভালই	-10.1007
▁সিট	-10.1008
▁মুহূর্তে	-10.1021
▁looked	-10.1028
▁Coraline	-10.103
▁Jimmy	-10.103
▁Potter	-10.103
▁amazing	-10.103
▁explain	-10.103
▁serious	-10.103
▁Easy	-10.103
▁spell	-10.103
▁Damn	-10.103
▁birthday	-10.1031
▁বাতাস	-10.1031
▁sort	-10.1034
▁Cha	-10.1034
▁বেচে	-10.1034
▁Over	-10.1035
▁চলুন	-10.1035
▁dance	-10.1036
▁নিচ্ছি	-10.1037
▁মালিক	-10.1039
▁Bye	-10.1041
▁বসো	-10.105
▁পরিচিত	-10.1052
▁এয়ার	-10.1053
▁বলেছিলে	-10.1058
▁mess	-10.106
▁বলল	-10.107
▁date	-10.1086
▁beat	-10.1092
▁Mu	-10.1095
▁Mi	-10.1096
▁মেয়েকে	-10.1104
▁নেওয়া	-10.1118
rot	-10.1126
▁গুলো	-10.1142
েরা	-10.1161
▁given	-10.1196
▁হবেনা	-10.1201
▁এসেছিল	-10.1226
▁যন্ত্র	-10.1234
▁হৃদয়	-10.1234
▁across	-10.1234
▁dinner	-10.1234
▁surprise	-10.1234
▁ঘুরে	-10.1234
▁Platt	-10.1234
▁charge	-10.1234
▁Billy	-10.1235
▁paper	-10.1235
▁roll	-10.1235
▁remain	-10.1235
▁গরম	-10.1235
▁nine	-10.1235
▁Jane	-10.1236
▁12	-10.1236
▁বিষ	-10.1237
▁princess	-10.1237
▁যতক্ষণ	-10.1238
▁hair	-10.124
▁কাপড়	-10.1246
▁চাবি	-10.1246
▁চলছে	-10.1252
fer	-10.1262
▁লুকিয়ে	-10.1268
▁hot	-10.1268
▁অনন্ত	-10.1269
▁Pri	-10.127
▁cat	-10.1273
▁করছিলাম	-10.1277
▁জিত	-10.1279
▁বন	-10.1281
▁Fa	-10.1282
▁pain	-10.1284
ron	-10.1287
▁আইন	-10.1288
▁এভাবেই	-10.1297
ট্রা	-10.1306
▁বাঁচিয়ে	-10.1309
gen	-10.131
ji	-10.1321
▁কতো	-10.1324
▁যেও	-10.1327
ল্ট	-10.1327
ah	-10.1373
):	-10.1376
▁বয়	-10.1383
▁দাম	-10.1389
▁seem	-10.1397
▁জয়	-10.14
ন্ডার	-10.14
▁offer	-10.1401
▁চাপ	-10.1401
ans	-10.1425
▁news	-10.1425
▁chocolate	-10.1443
▁himself	-10.1443
▁mountain	-10.1443
▁prison	-10.1443
▁অনুসরণ	-10.1443
▁কোরালাইন	-10.1443
▁ঢুকে	-10.1443
▁তুমাকে	-10.1443
▁দৃষ্টি	-10.1443
▁নিরাপত্তা	-10.1443
▁রিচার্ড	-10.1443
▁সিস্টেম	-10.1443
▁dollars	-10.1443
▁চিঠি	-10.1443
▁নিগ্রো	-10.1443
▁present	-10.1443
▁পাইলট	-10.1443
▁mask	-10.1443
▁hero	-10.1444
▁সূর্য	-10.1444
▁hide	-10.1444
টুকু	-10.1445
▁rather	-10.1446
▁stopped	-10.1446
▁ফুট	-10.1449
▁slow	-10.145
▁Once	-10.145
▁পটার	-10.1453
ize	-10.1454
▁bitch	-10.1457
▁Gus	-10.1457
▁American	-10.1457
▁দেখেছো	-10.1462
▁চেয়েছিল	-10.1468
▁দিও	-10.1469
▁কয়	-10.1471
time	-10.1472
▁special	-10.1472
▁পড়তে	-10.1476
▁পারছিনা	-10.1483
▁ফির	-10.1484
▁পুরুষ	-10.1496
▁ওদেরকে	-10.1519
▁breath	-10.1519
AR	-10.1522
▁পারিনি	-10.1529
▁দেখেছ	-10.1533
▁দিয়েছেন	-10.1542
ম্পা	-10.1551
▁বাঁ	-10.1555
▁forest	-10.1569
খান	-10.1575
▁thanks	-10.159
▁sounds	-10.1591
▁Ju	-10.1591
▁জাদু	-10.1605
▁মেয়ের	-10.1631
rap	-10.1634
ele	-10.164
শীল	-10.1644
▁দেখাও	-10.1648
▁লাগল	-10.1649
▁prince	-10.1653
aught	-10.1654
▁dark	-10.1654
▁French	-10.1656
▁Luke	-10.1656
▁married	-10.1656
▁position	-10.1656
▁stupid	-10.1656
▁অল্প	-10.1656
▁বিশ্রাম	-10.1656
▁buddy	-10.1656
▁floor	-10.1656
▁mouth	-10.1656
▁gift	-10.1656
▁গ্রূ	-10.1656
▁Hiro	-10.1656
▁প্রভু	-10.1656
▁তোমায়	-10.1656
▁উপহার	-10.1656
▁Gene	-10.1657
▁জ্ঞান	-10.1657
▁পুত্র	-10.1657
▁জন্মদিন	-10.1658
▁share	-10.1658
▁Lucy	-10.1658
▁কোরো	-10.1658
▁stick	-10.1659
▁cost	-10.1661
▁দাঁড়িয়ে	-10.1665
▁এরপর	-10.167
▁ওটাকে	-10.1673
▁cop	-10.1682
▁পূর্ব	-10.1686
▁আব	-10.1691
▁ফেলতে	-10.1694
▁রাখে	-10.1701
ov	-10.1704
▁গাড়িতে	-10.1707
▁করতো	-10.1708
▁ওয়ে	-10.1712
▁Sit	-10.1714
▁এল	-10.1716
▁upon	-10.1735
▁পাঠিয়ে	-10.1741
▁শন	-10.1743
▁লক্ষ	-10.1744
oke	-10.1747
▁পিতা	-10.1752
▁mad	-10.1753
▁oh	-10.1759
আমাদের	-10.1762
▁পাচ্ছ	-10.1763
▁gu	-10.1774
▁আল	-10.1774
light	-10.1775
LA	-10.1777
সময়	-10.1785
tal	-10.1788
▁plant	-10.1789
ong	-10.1798
▁দিল	-10.1812
▁hunt	-10.1817
▁দূর	-10.1819
▁বাই	-10.1827
▁শহরে	-10.1857
▁office	-10.1862
use	-10.1865
▁Se	-10.1872
▁ব্র্যান্ড	-10.1873
▁Leave	-10.1873
▁company	-10.1873
▁honey	-10.1873
▁kingdom	-10.1873
▁somebody	-10.1873
▁অসুস্থ	-10.1873
▁সমাধান	-10.1873
▁সুরক্ষিত	-10.1873
▁straight	-10.1873
▁বন্দী	-10.1873
▁steal	-10.1873
▁till	-10.1873
▁জঙ্গল	-10.1873
▁19	-10.1874
▁wall	-10.1875
▁less	-10.1876
নিক	-10.1877
▁গিয়েছিলাম	-10.1878
▁মস্তিষ্ক	-10.1882
▁বাছা	-10.1885
▁বেড়া	-10.1887
▁বাঁচাতে	-10.1893
▁থাকবো	-10.1896
▁রকম	-10.1905
▁Bell	-10.1907
েশন	-10.191
▁mis	-10.1922
▁সার	-10.1929
▁50	-10.1937
ার্ড	-10.194
▁fighting	-10.1947
▁ran	-10.1964
umb	-10.1995
গুলোকে	-10.2005
▁প্রেম	-10.2008
ন্ধ	-10.2009
▁করেনি	-10.2009
▁killing	-10.2022
all	-10.2054
ator	-10.2059
▁হাসি	-10.2077
লিয়া	-10.2084
▁Should	-10.2095
▁nobody	-10.2095
▁যেহেতু	-10.2095
▁লম্বা	-10.2095
▁peace	-10.2095
▁কুকুর	-10.2095
▁short	-10.2095
▁meant	-10.2096
▁window	-10.2096
▁guard	-10.2096
▁fool	-10.2096
▁১২	-10.2098
ল্ড	-10.2098
▁test	-10.21
▁Che	-10.2101
▁পেলাম	-10.2103
▁বললাম	-10.2111
▁rain	-10.2113
াচ্ছে	-10.2119
▁ফেলো	-10.2125
▁ভাবছ	-10.2131
▁পাল	-10.2134
qua	-10.2135
▁অবস্থায়	-10.2139
▁weeks	-10.214
you	-10.2153
▁দিয়েছিল	-10.2155
▁lock	-10.2161
▁চেয়েও	-10.2162
েন্স	-10.2167
ন্য	-10.2175
▁age	-10.2177
▁পরিবারের	-10.2181
▁গলা	-10.2183
▁unit	-10.2197
▁খাই	-10.2203
শেষ	-10.2211
▁মাছ	-10.2222
but	-10.2223
▁পড়েছি	-10.223
ভাবেই	-10.2233
▁ওহ্	-10.2248
যোগ	-10.225
▁মুখে	-10.2251
We	-10.2257
▁পারছ	-10.2261
র্গ	-10.2273
▁Ja	-10.2279
লেই	-10.2297
lf	-10.2311
▁law	-10.2317
▁seven	-10.2318
▁sweet	-10.2321
Z	-10.2322
▁সৃষ্টি	-10.2322
▁Hansel	-10.2322
▁purpose	-10.2322
▁Could	-10.2322
▁Edward	-10.2322
▁smart	-10.2322
▁monster	-10.2322
▁ক্লাস	-10.2323
▁gentlemen	-10.2323
▁রিপোর্ট	-10.2324
▁ব্যাথা	-10.2325
▁ঘটেছে	-10.2327
▁থাকুন	-10.2328
▁নং	-10.2334
▁বিমান	-10.2336
▁lucky	-10.2339
▁সাত	-10.2339
▁ইউ	-10.2345
▁Fine	-10.2348
▁নিয়েছে	-10.2349
▁ধারনা	-10.235
▁শত	-10.235
▁পাখি	-10.2361
▁weak	-10.2362
▁sw	-10.2363
▁সেগুলো	-10.238
ray	-10.238
▁code	-10.2392
▁ছেলেরা	-10.2394
ছিলো	-10.2404
▁৩০	-10.244
তাহলে	-10.2444
▁লিখ	-10.2445
▁জীবনে	-10.2451
জন্য	-10.246
▁বুঝা	-10.2463
ware	-10.2475
ণী	-10.2516
▁গড	-10.2521
স্ব	-10.2526
▁destroy	-10.2534
men	-10.2539
▁arrest	-10.2555
▁nigger	-10.2555
▁record	-10.2555
▁welcome	-10.2555
▁বুড়ো	-10.2555
▁ব্লাকউড	-10.2555
▁ম্যাডাম	-10.2555
▁খেয়াল	-10.2555
▁থেকো	-10.2555
▁মুখোশ	-10.2555
▁সম্পূর্ণ	-10.2555
▁super	-10.2555
▁angry	-10.2555
▁বিজ্ঞান	-10.2555
▁York	-10.2555
▁পরবর্তী	-10.2556
▁রানী	-10.2556
▁mark	-10.2556
▁প্রমাণ	-10.2557
▁গ্রাম	-10.2557
▁taste	-10.2557
▁create	-10.2557
▁জগত	-10.2559
▁বৈ	-10.2559
til	-10.2559
▁দিলাম	-10.256
▁boss	-10.2562
▁পারতাম	-10.2563
▁ব্যাবহার	-10.2567
▁এজন্যই	-10.2567
▁ওঠো	-10.2567
ন্টি	-10.2568
▁Dave	-10.2569
▁Sean	-10.2571
▁hole	-10.2573
▁তাকিয়ে	-10.2574
▁broken	-10.2575
ough	-10.2577
▁bear	-10.2582
▁পড়বে	-10.2588
▁Any	-10.2589
▁বাচা	-10.2591
▁হারানো	-10.2595
▁শুধুই	-10.2596
▁words	-10.261
▁personal	-10.2623
▁Ga	-10.2638
লেট	-10.2639
▁করেছিলে	-10.2644
ফে	-10.2645
▁lab	-10.2653
▁অফ	-10.2661
তারা	-10.2672
▁seeing	-10.2678
▁ভাবতে	-10.2679
▁কারা	-10.2681
▁ঠিকই	-10.2682
▁হি	-10.2687
▁weapons	-10.2696
▁পেট	-10.27
▁Con	-10.2719
▁রাজকুমার	-10.2751
▁বিষয়ে	-10.2774
▁Too	-10.2775
▁Christ	-10.2793
▁ইঞ্জিন	-10.2793
▁নৌকা	-10.2793
▁People	-10.2793
▁hurry	-10.2793
▁throw	-10.2793
▁factory	-10.2793
▁marry	-10.2793
▁ষ্টেশন	-10.2793
▁স্বামী	-10.2793
▁glad	-10.2793
▁pilot	-10.2793
▁source	-10.2793
▁Guy	-10.2793
▁ডিউক	-10.2793
▁bike	-10.2794
▁blue	-10.2794
▁gold	-10.2795
▁somewhere	-10.2796
▁Ella	-10.2796
▁box	-10.2797
▁ফাইট	-10.2798
▁cover	-10.28
▁এমনি	-10.28
▁moon	-10.28
তাই	-10.2802
▁সূ	-10.2803
▁class	-10.2803
▁signal	-10.2804
▁El	-10.2805
▁ক্ষেত্রে	-10.2811
▁বেছে	-10.2824
▁দাদা	-10.2825
▁মহান	-10.2825
▁বাচ্চারা	-10.2826
▁গ্রহণ	-10.283
▁মূল	-10.2831
▁মেক্স	-10.2839
▁আসব	-10.2853
▁ডেভ	-10.2865
▁শু	-10.2865
▁sound	-10.2866
▁longer	-10.2873
▁শহরের	-10.2894
▁করোনা	-10.2896
▁By	-10.2897
▁U	-10.2903
▁animals	-10.2921
▁দেওয়ার	-10.293
▁Dis	-10.2935
▁দেখবে	-10.2937
▁জুতা	-10.294
▁ফ্ল	-10.2943
▁codes	-10.2971
▁হচ্ছি	-10.298
▁broke	-10.3017
▁গ্রে	-10.3028
▁ঘটে	-10.3032
▁পাশ	-10.3035
▁গুড	-10.3037
▁Dieter	-10.3037
▁Remember	-10.3037
▁Think	-10.3037
▁chicken	-10.3037
▁picture	-10.3037
▁strange	-10.3037
▁আইডিয়া	-10.3037
▁কোম্পানি	-10.3037
▁গভীর	-10.3037
▁push	-10.3037
▁street	-10.3037
▁কিংবা	-10.3037
▁visit	-10.3037
▁পশু	-10.3037
▁Out	-10.3037
▁আগামীকাল	-10.3038
▁launch	-10.3038
▁Uncle	-10.3038
▁Check	-10.3038
▁North	-10.3038
▁পুরনো	-10.3039
▁নদী	-10.3039
▁আব্বা	-10.3039
▁Mama	-10.3039
▁ব্যস্ত	-10.3039
▁fairy	-10.3045
▁জোরে	-10.3045
▁carry	-10.3046
▁sky	-10.3051
▁মাটিতে	-10.3057
▁রূপ	-10.3078
▁wh	-10.3082
▁Da	-10.3087
▁বাজা	-10.3088
▁within	-10.3094
ually	-10.3097
▁ca	-10.3097
নীয়	-10.3113
▁plane	-10.3123
▁sk	-10.3124
▁কন	-10.3124
▁Aw	-10.3129
▁গাস	-10.3137
০০০	-10.3143
ump	-10.3165
▁তত	-10.3169
▁ছেলেকে	-10.317
টু	-10.3188
▁সবকিছুই	-10.3189
▁ডেট	-10.3209
▁স্কুল	-10.3211
▁পাব	-10.3212
▁দিয়েছ	-10.322
তন	-10.3222
▁wonder	-10.3235
▁বিশ্ব	-10.3253
কী	-10.3255
▁jump	-10.3266
▁প্রবেশ	-10.3274
লস	-10.3285
▁force	-10.3285
▁Oracle	-10.3287
▁beyond	-10.3287
▁pleasure	-10.3287
▁voice	-10.3287
▁আঙ্কেল	-10.3287
▁ইঁদুর	-10.3287
▁কন্ট্রোল	-10.3287
▁জেমস	-10.3287
▁পরিস্থিতি	-10.3287
▁প্রফেসর	-10.3287
▁বৃষ্টি	-10.3287
▁শ্বশুর	-10.3287
▁স্যাটেলাইট	-10.3287
▁deliver	-10.3287
▁cross	-10.3287
▁পার্সি	-10.3287
▁flower	-10.3287
▁foot	-10.3287
▁সাহেব	-10.3287
▁দানব	-10.3287
▁Duke	-10.3288
▁Hmm	-10.3288
▁হায়	-10.3288
▁খরচ	-10.3288
▁pen	-10.3288
▁সমুদ্র	-10.3288
▁spend	-10.329
▁wake	-10.329
▁চেয়েছিলাম	-10.3293
ম্ভ	-10.3293
▁boat	-10.3294
▁ওয়াহ	-10.3295
▁Up	-10.3296
▁busy	-10.3303
▁আসবো	-10.3306
▁building	-10.3308
তায়	-10.3311
▁Th	-10.3312
▁শুনেছ	-10.3317
▁cl	-10.3324
▁Com	-10.3326
▁ব্রা	-10.3328
ber	-10.3332
▁আরেক	-10.3337
▁island	-10.334
▁খোঁজ	-10.3348
over	-10.3349
ময়	-10.3354
▁hu	-10.3358
lar	-10.3358
cal	-10.3373
▁সাথেই	-10.3375
val	-10.3381
ka	-10.3404
▁Min	-10.3411
▁বুঝ	-10.3412
▁ডিম	-10.342
ধু	-10.3428
▁machines	-10.3443
▁চাচ্ছে	-10.3444
▁পিছে	-10.3444
▁ফেলব	-10.3445
▁শালা	-10.3464
▁card	-10.3469
▁সম্পর্ক	-10.3481
▁ওয়ান	-10.349
▁ট্রি	-10.3522
▁certain	-10.3535
▁quick	-10.3535
▁পিল	-10.3541
▁Perhaps	-10.3543
▁contact	-10.3543
▁impossible	-10.3543
▁ইয়র্ক	-10.3543
▁ঘৃণা	-10.3543
▁ব্যালথাজার	-10.3543
▁EMP	-10.3543
▁appear	-10.3543
▁smell	-10.3543
▁Zion	-10.3543
▁self	-10.3543
▁Blackwood	-10.3543
▁bird	-10.3543
▁মহারাজ	-10.3544
▁টেবিল	-10.3544
▁weird	-10.3544
▁treat	-10.3544
▁Under	-10.3545
▁11	-10.3545
▁serve	-10.3546
▁নোয়া	-10.3546
▁deep	-10.3547
▁গেলাম	-10.3547
▁খুঁজছি	-10.3548
▁শুনুন	-10.3549
▁table	-10.3549
▁রেখো	-10.3551
▁টিকেট	-10.3551
▁লাগলো	-10.3555
▁Five	-10.356
▁Kill	-10.3561
▁প্রার্থনা	-10.3565
▁যাত্রা	-10.3572
▁War	-10.3588
▁গায়ে	-10.3602
▁8	-10.361
▁turned	-10.3615
০০	-10.3615
▁দুর্	-10.3621
▁pal	-10.3621
▁কথাটা	-10.3623
▁মেয়েরা	-10.3624
▁মাকে	-10.3637
▁হব	-10.3651
He	-10.3662
▁rules	-10.3672
▁পারতে	-10.3683
▁art	-10.3693
J	-10.3696
্রান্ত	-10.3696
▁রুমে	-10.3705
▁known	-10.3707
দী	-10.3712
▁উদ	-10.3715
াইন	-10.3726
্যাপ	-10.3744
lin	-10.3773
▁figure	-10.3782
▁রাজ	-10.3788
▁ড্রাইভ	-10.3802
▁ব্যক্তি	-10.3806
বৃত্ত	-10.3807
▁Balthazar	-10.3807
▁Barney	-10.3807
▁Brother	-10.3807
▁Majesty	-10.3807
▁bridge	-10.3807
▁enjoy	-10.3807
▁husband	-10.3807
▁idiot	-10.3807
▁উপভোগ	-10.3807
▁ওয়াটসন	-10.3807
▁কম্পিউটার	-10.3807
▁দুর্ঘটনা	-10.3807
▁পবিত্র	-10.3807
▁বিরুদ্ধে	-10.3807
▁travel	-10.3807
▁অন্যান্য	-10.3807
▁ডিয়েটার	-10.3807
▁পুতুল	-10.3807
▁মোটেও	-10.3807
▁প্রকাশ	-10.3807
▁belong	-10.3807
▁প্লেন	-10.3807
▁white	-10.3807
▁simple	-10.3807
▁sad	-10.3807
▁জায়ন	-10.3808
▁rock	-10.3808
▁harm	-10.3809
▁sell	-10.3809
▁kick	-10.3809
▁wings	-10.3809
▁hotel	-10.3809
▁প্রেত	-10.381
▁ট্যা	-10.3813
▁cup	-10.3813
▁দক্ষ	-10.3814
▁চাইনা	-10.3817
▁Joe	-10.3819
▁হয়তোবা	-10.382
▁decided	-10.3821
▁কোটি	-10.3825
ানোর	-10.3836
▁road	-10.3846
▁৫০	-10.3846
▁Ya	-10.3861
▁Eat	-10.3862
▁পরা	-10.3862
▁state	-10.3862
▁বুঝি	-10.3866
ক্ষা	-10.3868
▁মিলে	-10.3871
▁playing	-10.3882
▁তাইনা	-10.3882
▁planet	-10.3887
▁উড়	-10.391
▁Car	-10.393
oh	-10.3931
▁যোগ	-10.3933
ral	-10.3938
▁করল	-10.3943
▁using	-10.3943
টন	-10.3944
boo	-10.3956
এবং	-10.3966
▁দাঁড়া	-10.3978
পথ	-10.3993
গ্রা	-10.3996
efore	-10.3996
▁Ki	-10.4002
▁চড়	-10.4007
▁এনেছি	-10.401
▁worked	-10.4011
▁এনে	-10.4027
ki	-10.403
▁দুর্বল	-10.4044
▁ক্রে	-10.4049
গল	-10.4053
▁finish	-10.4055
▁আটকা	-10.4061
▁wear	-10.4077
▁TARS	-10.4077
▁darling	-10.4077
▁hospital	-10.4077
▁percent	-10.4077
▁satellite	-10.4077
▁security	-10.4077
▁spirit	-10.4077
▁অনুরোধ	-10.4077
▁অস্তিত্ব	-10.4077
▁জেগে	-10.4077
▁টার্গেট	-10.4077
▁ঠাণ্ডা	-10.4077
▁ভবিষ্যৎ	-10.4077
▁ভয়ংকর	-10.4077
▁মনোযোগ	-10.4077
▁bullet	-10.4077
▁বাধ্য	-10.4077
▁park	-10.4077
▁soldier	-10.4077
▁third	-10.4077
▁consider	-10.4077
▁ছড়িয়ে	-10.4077
▁risk	-10.4077
▁টার্স	-10.4077
▁কাগজ	-10.4077
▁পিস্তল	-10.4077
▁begin	-10.4077
▁গুরুজি	-10.4078
▁fill	-10.4078
▁ভ্যান	-10.4079
▁Show	-10.408
▁flight	-10.4081
▁para	-10.4082
▁Hang	-10.4084
▁প্রতিদিন	-10.4084
▁witches	-10.4085
▁skin	-10.4086
▁হয়না	-10.4092
▁হবার	-10.4092
▁দেখলাম	-10.4094
▁গেছেন	-10.4095
▁বলিনি	-10.4098
▁সারাজীবন	-10.4104
▁loved	-10.4118
ath	-10.4122
▁রাজকুমারী	-10.4125
▁অবস্থান	-10.4126
▁চালাও	-10.4128
▁pack	-10.414
▁বুঝলে	-10.4145
▁watching	-10.4149
▁শ্বাস	-10.4165
▁নও	-10.4166
▁More	-10.4167
▁কেউই	-10.4172
মেন্ট	-10.4176
▁machine	-10.4184
▁এসেছেন	-10.4188
▁ন্যা	-10.419
▁নিবে	-10.4194
▁lived	-10.4214
▁ইপ	-10.4215
cap	-10.4215
MA	-10.4217
▁sta	-10.4218
fully	-10.4223
▁লিখে	-10.423
board	-10.4247
Yes	-10.4254
▁En	-10.4259
▁দেবতা	-10.4266
▁অত	-10.4274
▁ব্র	-10.4295
▁মতে	-10.4299
▁sing	-10.4302
uit	-10.4311
AN	-10.4316
cha	-10.4316
▁আমেরিকা	-10.4317
▁টম	-10.4332
▁বিষয়টা	-10.4339
▁access	-10.4355
▁bastard	-10.4355
▁climb	-10.4355
▁difference	-10.4355
▁ghost	-10.4355
▁imagine	-10.4355
▁search	-10.4355
▁অগাস্টাস	-10.4355
▁এক্সকিউ	-10.4355
▁কাউন্সিল	-10.4355
▁গ্রেপ্তার	-10.4355
▁নেভিগেশন	-10.4355
▁ফালতু	-10.4355
▁রেকর্ড	-10.4355
▁Loan	-10.4355
▁Percy	-10.4355
▁অন্তত	-10.4355
▁blind	-10.4355
▁সফল	-10.4355
GASP	-10.4355
▁রাউন্ড	-10.4355
▁চাঁদ	-10.4355
▁রঙ	-10.4355
▁রাইট	-10.4356
▁Everyone	-10.4356
▁পারেনা	-10.4356
▁caught	-10.4356
▁information	-10.4356
▁বুদ্ধিমান	-10.4357
▁cook	-10.4357
▁lady	-10.4358
▁trick	-10.4358
▁enter	-10.436
▁Issa	-10.4362
জ্জ	-10.4363
▁sight	-10.4363
▁fish	-10.4367
▁scan	-10.4372
▁বন্ড	-10.4372
ওয়ালা	-10.4372
▁Fire	-10.4374
▁gate	-10.4379
▁দিয়েছিলাম	-10.4381
্কা	-10.4403
▁টান	-10.4417
▁মাইল	-10.4418
্যাটি	-10.442
▁দেহ	-10.4426
▁দিনে	-10.4439
▁pe	-10.444
▁মাটি	-10.4445
▁যাদের	-10.4457
▁ঠ	-10.4469
▁weapon	-10.4469
▁board	-10.447
▁উই	-10.448
▁পায়ের	-10.4481
▁ফল	-10.4485
▁বুঝে	-10.4497
▁টু	-10.4514
▁পাঠিয়েছে	-10.4526
৩	-10.4527
of	-10.453
পো	-10.4545
▁বিশ	-10.4546
▁প্যাক	-10.4553
ense	-10.456
▁খোল	-10.4562
▁উচ্চ	-10.4563
▁ওখানেই	-10.4572
বেনা	-10.4583
জ্ঞা	-10.459
▁suppose	-10.4616
▁fail	-10.4618
▁ফোনটা	-10.4622
▁7	-10.4622
হে	-10.4625
▁min	-10.4631
ompa	-10.4637
▁পিছ	-10.4638
▁John	-10.464
▁Duane	-10.464
▁Vortex	-10.464
▁doubt	-10.464
▁gravity	-10.464
▁ইতিহাস	-10.464
▁কল্পনা	-10.464
▁টিঙ্কার	-10.464
▁মারাত্মক	-10.464
▁Ethan	-10.464
▁টিকিট	-10.464
▁ডুয়েন	-10.464
▁ভিডিও	-10.464
সম্পন্ন	-10.464
▁worse	-10.464
▁ব্যর্থ	-10.464
▁শাস্তি	-10.464
▁James	-10.464
▁Close	-10.464
▁Eep	-10.464
▁বাহিরে	-10.464
▁পাথর	-10.464
▁বরং	-10.464
▁মিসেস	-10.4641
▁উদ্ধার	-10.4641
▁kidding	-10.4641
▁ভীত	-10.4641
▁প্রস্তত	-10.4641
▁বুলেট	-10.4641
▁পাউন্ড	-10.4641
▁laugh	-10.4641
▁13	-10.4642
▁Stone	-10.4642
▁cash	-10.4643
▁15	-10.4643
▁Nick	-10.4643
▁অফিসার	-10.4643
▁অনুমান	-10.4644
▁earth	-10.4644
▁exist	-10.4646
▁finally	-10.4647
lock	-10.4648
▁সৎ	-10.465
▁দৌড়াও	-10.465
▁cent	-10.4652
ueen	-10.4654
▁Cap	-10.4656
▁যাকে	-10.4657
▁Noah	-10.4662
▁সাইকেল	-10.4668
▁পাবো	-10.4676
▁spy	-10.4684
▁টিকে	-10.4693
▁চালাতে	-10.4696
▁যোগ্য	-10.4698
▁অন্যদের	-10.4702
▁Pl	-10.4702
▁shoes	-10.4703
▁owe	-10.4704
▁কেও	-10.4705
গার্ড	-10.4719
লিন	-10.4721
▁আবারো	-10.4743
-2	-10.4759
▁যেকোন	-10.4762
দুর	-10.4763
▁বার্নি	-10.4771
▁King	-10.4777
তলা	-10.4789
▁রোগ	-10.4791
▁করছিলে	-10.4793
▁বিপদ	-10.4798
িয়েছে	-10.48
▁প্রান	-10.4811
▁Bi	-10.4869
▁Ch	-10.4871
▁Tom	-10.4886
▁পদ	-10.4909
▁build	-10.4909
▁মিল	-10.491
▁India	-10.4913
tract	-10.4933
▁শিশুর	-10.4934
▁waste	-10.4934
▁nucle	-10.4934
▁Asgard	-10.4934
▁Building	-10.4934
▁Gretel	-10.4934
▁Tomorrow	-10.4934
▁concern	-10.4934
▁hungry	-10.4934
▁middle	-10.4934
▁suffer	-10.4934
▁worried	-10.4934
▁চিৎকার	-10.4934
▁জঘন্য	-10.4934
▁টুকরো	-10.4934
▁স্বাভাবিক	-10.4934
▁clothes	-10.4934
▁honest	-10.4934
▁tired	-10.4934
▁ইথান	-10.4934
▁Clear	-10.4934
▁Anderson	-10.4935
▁গ্রেইস	-10.4935
▁কিচ্ছু	-10.4935
▁বিড়াল	-10.4935
▁সবুজ	-10.4935
▁Turn	-10.4935
▁নীল	-10.4935
▁ফ্রেঞ্চ	-10.4935
▁evil	-10.4935
▁Susu	-10.4935
▁শিক্ষা	-10.4936
▁ব্যথা	-10.4936
▁terrible	-10.4936
▁সংখ্যা	-10.4937
▁থামাও	-10.4937
▁সুপার	-10.4937
▁25	-10.4938
▁Call	-10.494
▁পিছু	-10.4942
▁Tinker	-10.4942
▁completely	-10.4942
▁Van	-10.495
▁এস	-10.4951
▁আসেন	-10.4957
▁লাগানো	-10.4958
▁এসেছো	-10.4964
▁দিচ্ছ	-10.4968
▁wonderful	-10.4973
▁স্বীকার	-10.4977
rew	-10.4978
▁বাঁচ	-10.4988
▁চলবে	-10.4993
▁candy	-10.4995
▁বাধা	-10.4995
▁পেরেছ	-10.5005
▁ভূত	-10.501
▁বদলা	-10.5014
▁কালকে	-10.5016
▁খুঁজছে	-10.5026
▁শিশু	-10.5028
▁listening	-10.5047
▁যেভাবে	-10.5047
▁weren	-10.5051
▁quiet	-10.5063
▁ওইল	-10.5065
▁Chi	-10.5065
▁Love	-10.5066
▁month	-10.5067
▁হ্যান	-10.5067
▁রেখেছি	-10.5069
▁বিপদে	-10.5074
▁heading	-10.508
▁ওখান	-10.51
▁কাপ	-10.5103
▁সহজে	-10.5118
ত্য	-10.5123
দেশ	-10.5142
ল্যা	-10.5144
▁পল	-10.5152
▁Yo	-10.5165
ঙ্গা	-10.5185
▁করিনা	-10.5197
▁শক্ত	-10.5199
bal	-10.5232
▁ঘড়ি	-10.5237
▁Ernie	-10.5237
▁Everybody	-10.5237
▁accident	-10.5237
▁condition	-10.5237
▁confirm	-10.5237
▁dinosaur	-10.5237
▁enemy	-10.5237
▁goddamn	-10.5237
▁request	-10.5237
▁অবিশ্বাস্য	-10.5237
▁আঙ্গুল	-10.5237
▁ইঁসা	-10.5237
▁ঘোড়া	-10.5237
▁ঢুকা	-10.5237
▁situation	-10.5237
▁Six	-10.5238
▁paid	-10.5238
▁গাড়ী	-10.5238
▁মিষ্টি	-10.5238
▁space	-10.5238
▁গ্রাগ	-10.5238
▁ঠান্ডা	-10.5238
▁প্রজাতি	-10.5238
▁লাগিয়ে	-10.5238
▁চাকরি	-10.5238
▁স্টোন	-10.5238
▁built	-10.5238
▁অর্ডার	-10.5238
▁dude	-10.5238
▁sometimes	-10.5238
▁কাঁদ	-10.5238
▁সীমা	-10.5238
▁Aye	-10.5238
▁flat	-10.5238
▁store	-10.5239
▁immediately	-10.5239
▁ভিতর	-10.524
▁খোজ	-10.524
▁কফি	-10.5242
▁suck	-10.5242
▁রাখুন	-10.5243
▁ধর্ম	-10.5246
▁ছুটি	-10.5248
▁বিচার	-10.525
▁পাচ্ছো	-10.5251
▁দুইজন	-10.5259
হার	-10.5259
▁হুমম	-10.5264
▁Ow	-10.5268
▁একত্র	-10.5268
▁উম	-10.5272
▁পড়ো	-10.5274
▁মেয়েদের	-10.5276
দিক	-10.5281
Caus	-10.5281
ফু	-10.5283
▁spar	-10.5284
▁standing	-10.5295
▁খাবে	-10.5296
ীন	-10.5305
▁পাচ্ছে	-10.5321
rk	-10.5322
▁চলতে	-10.5328
▁কান	-10.5354
▁ye	-10.5355
▁দুইটা	-10.5363
▁রাখার	-10.54
▁পড়া	-10.5455
▁মুক্তি	-10.5469
cle	-10.5473
▁আগা	-10.5484
▁১০০	-10.5495
▁বলবেন	-10.55
▁নেব	-10.5504
ধার	-10.5504
▁মতোই	-10.551
▁engine	-10.5521
▁নিশ্চয়	-10.5525
▁100	-10.5526
▁America	-10.5529
▁ধরেছি	-10.5538
▁favor	-10.555
▁ভরটেক্স	-10.555
DIETER	-10.555
▁Cross	-10.555
▁Trinity	-10.555
▁awesome	-10.555
▁computer	-10.555
▁level	-10.555
▁service	-10.555
▁strength	-10.555
▁ঘটবে	-10.555
▁ট্রিনিটি	-10.555
▁তাছাড়া	-10.555
▁দীর্ঘ	-10.555
▁ধোঁকা	-10.555
▁ব্যবসা	-10.555
▁স্পর্শ	-10.555
▁drug	-10.555
▁history	-10.555
▁impress	-10.555
▁About	-10.555
▁Always	-10.555
▁স্ক্যান	-10.555
▁lawyer	-10.555
রাষ্ট্র	-10.555
▁Still	-10.555
▁forgive	-10.555
▁অবাক	-10.555
▁lord	-10.555
▁মামনি	-10.555
▁দাঁত	-10.555
▁ভালোবাসে	-10.555
▁হতাশ	-10.555
▁পরিণত	-10.5551
▁নাহলে	-10.5551
▁truck	-10.5551
▁প্রতিজ্ঞা	-10.5552
▁uncle	-10.5552
▁demon	-10.5553
▁command	-10.5554
▁স্বাদ	-10.5554
▁সম্ভাবনা	-10.5554
▁pray	-10.5554
▁single	-10.5555
▁পুরানো	-10.5557
▁ভাড়া	-10.5558
▁spent	-10.5559
▁সামলে	-10.5561
▁eh	-10.5566
▁মরার	-10.5568
▁জমি	-10.5575
▁faster	-10.5577
▁পাইনি	-10.5581
▁কিছুক্ষণ	-10.5582
▁বলছিলাম	-10.5586
▁খেলতে	-10.5594
▁বুঝবে	-10.5594
▁fit	-10.5596
▁flying	-10.5603
▁promised	-10.5615
▁missing	-10.5616
▁rid	-10.562
▁নেয়	-10.562
har	-10.5639
▁trip	-10.5648
▁eating	-10.5667
▁রক্তের	-10.5669
লিক	-10.567
▁ফেলা	-10.5673
▁whoa	-10.5674
ক্রম	-10.5676
▁বাসা	-10.5678
▁headed	-10.5682
▁animal	-10.5702
ung	-10.5704
▁Cas	-10.5705
▁ওরে	-10.5705
▁জানালা	-10.5728
▁ভেবেছি	-10.5732
▁জেলে	-10.5735
▁জেল	-10.5755
▁San	-10.5756
▁এইবার	-10.576
▁Du	-10.5766
খো	-10.5773
▁tea	-10.5776
▁pin	-10.579
ক্সি	-10.5794
▁inter	-10.5798
▁বাঁধ	-10.5814
rie	-10.5822
▁কামড়	-10.5826
▁জড়	-10.5836
▁ভাবি	-10.5837
লোড	-10.5858
▁সাব	-10.5858
▁complete	-10.5864
▁ড্রাগ	-10.5871
▁সৌভাগ্য	-10.5873
▁Chinese	-10.5873
▁Doctor	-10.5873
▁Explorer	-10.5873
▁Karpov	-10.5873
▁Ready	-10.5873
▁continue	-10.5873
▁correct	-10.5873
▁creature	-10.5873
▁disappear	-10.5873
▁fault	-10.5873
▁knock	-10.5873
▁murder	-10.5873
▁wound	-10.5873
▁অনুগ্রহ	-10.5873
▁আচরণ	-10.5873
▁চিন্তিত	-10.5873
▁ঝুঁকি	-10.5873
▁মিলিয়ন	-10.5873
▁কারপভ	-10.5873
▁প্রধান	-10.5873
▁বিষ্ঠা	-10.5873
▁সুরক্ষা	-10.5873
▁ভয়ানক	-10.5873
▁Next	-10.5873
▁normal	-10.5873
▁নির্ভর	-10.5873
▁ইয়েস	-10.5873
▁talent	-10.5873
▁শেখা	-10.5873
▁Mommy	-10.5873
▁Water	-10.5873
▁বানাতে	-10.5873
▁forgot	-10.5873
▁বাগান	-10.5873
▁ট্র্যাক	-10.5874
▁crash	-10.5874
▁Jack	-10.5876
▁সুসু	-10.5876
▁ডিনার	-10.5876
▁লোকেরা	-10.5877
▁দেশে	-10.5877
▁common	-10.5878
▁পুর	-10.5882
▁সাদা	-10.5882
▁Grug	-10.5883
▁ওয়াদা	-10.5884
▁রাখবো	-10.5885
▁মিটার	-10.5889
▁দেখেছে	-10.589
বিদ্যা	-10.589
▁ওভার	-10.5898
ef	-10.59
▁destroyed	-10.5903
▁tri	-10.5904
▁প্রতিটি	-10.5906
▁Fall	-10.5908
▁গাধা	-10.5917
▁learned	-10.5918
▁বাড়া	-10.592
স্টে	-10.5923
▁পেয়েছেন	-10.5929
▁ওনার	-10.5934
জো	-10.594
▁reading	-10.5944
▁load	-10.5961
▁রাখবেন	-10.5965
▁বোঝ	-10.5974
kin	-10.5981
▁চাল	-10.6028
▁কাকে	-10.603
হো	-10.6053
rote	-10.6059
▁breathe	-10.6084
▁handle	-10.6089
▁MI	-10.61
▁def	-10.61
▁believed	-10.6103
ডো	-10.6109
▁bra	-10.611
▁দেয়ার	-10.6118
▁Ve	-10.6119
▁ফ্রেড	-10.6143
▁কোথা	-10.6179
শুন	-10.6182
▁শুক	-10.6203
▁লু	-10.6205
ery	-10.6205
rrow	-10.6205
▁Clarence	-10.6206
▁attention	-10.6206
▁difficult	-10.6206
▁instead	-10.6206
▁require	-10.6206
▁ওষুধ	-10.6206
▁ফেয়ারী	-10.6206
▁ফ্যাক্টরি	-10.6206
▁হাসপাতালে	-10.6206
▁Another	-10.6206
▁effect	-10.6206
▁further	-10.6206
▁price	-10.6206
▁release	-10.6206
▁আওয়াজ	-10.6206
▁বিচ্ছিন্ন	-10.6206
▁egg	-10.6206
▁আলাপ	-10.6206
▁Avery	-10.6206
▁miles	-10.6206
▁পোশাক	-10.6206
▁feed	-10.6206
▁camp	-10.6206
▁বিপদজনক	-10.6206
▁stole	-10.6207
▁জলিল	-10.6207
▁ভিন্ন	-10.6208
▁লাঞ্চ	-10.6208
▁spring	-10.6208
▁message	-10.6208
▁Los	-10.6208
▁কমান্ড	-10.6209
▁guest	-10.6209
▁জিয়ান	-10.621
▁ব্যাঙ্ক	-10.6211
▁ইচ্ছে	-10.6213
▁exam	-10.6214
▁quickly	-10.6217
▁file	-10.6218
▁কতদিন	-10.6218
▁Station	-10.6219
▁Sta	-10.6219
▁GO	-10.6221
▁থাকতো	-10.6223
▁Day	-10.6226
গোল	-10.6228
▁cry	-10.6233
▁locked	-10.6239
ject	-10.6246
াচ্ছি	-10.6247
▁বলছো	-10.625
▁একজনকে	-10.6256
▁ডু	-10.6263
▁ঘুমিয়ে	-10.6268
▁মেধা	-10.6277
▁এইযে	-10.6277
▁করলো	-10.6279
▁আজকের	-10.6308
▁যায়নি	-10.6315
ওহ	-10.6323
▁dig	-10.6339
▁পাপ	-10.6339
বেলা	-10.6367
▁ক্যাপ	-10.637
▁হাল	-10.6376
▁চাইনি	-10.6377
▁rule	-10.6388
▁যাবেন	-10.6401
And	-10.6441
যদি	-10.6443
শ্বাস	-10.6444
হ্যা	-10.6451
▁evening	-10.6472
▁দৌড়	-10.6488
্যাং	-10.6494
▁তাক	-10.6508
▁মধ্য	-10.652
▁বুঝেছ	-10.6522
▁temp	-10.6547
▁ইন্টার	-10.655
▁ড্রাক	-10.6551
ফোর্ড	-10.6551
▁Follow	-10.6551
▁HYDRA	-10.6551
▁Violet	-10.6551
▁account	-10.6551
▁decision	-10.6551
▁express	-10.6551
▁garden	-10.6551
▁poison	-10.6551
▁respect	-10.6551
▁sacrifice	-10.6551
▁teeth	-10.6551
▁zero	-10.6551
▁ইতিমধ্যে	-10.6551
▁ক্যামেরা	-10.6551
▁ক্লান্ত	-10.6551
▁জ্বালা	-10.6551
▁বিল্ডিং	-10.6551
▁ভবিষ্যত	-10.6551
▁মহাকর্ষ	-10.6551
▁engage	-10.6551
▁ফ্লাইট	-10.6551
▁Tucker	-10.6551
▁village	-10.6551
▁জিনিষ	-10.6551
▁দ্যাখো	-10.6551
▁freak	-10.6551
▁join	-10.6551
▁মরগানা	-10.6551
▁সদস্য	-10.6551
▁ruin	-10.6551
▁green	-10.6551
▁heaven	-10.6551
▁ধরণের	-10.6551
▁প্রকৃতি	-10.6551
▁উৎস	-10.6551
▁river	-10.6551
▁match	-10.6551
▁definitely	-10.6551
▁যত্ন	-10.6551
▁rich	-10.6551
▁Grant	-10.6551
▁pills	-10.6551
▁বরফ	-10.6552
▁Pi	-10.6552
▁Arm	-10.6552
▁চুমু	-10.6552
▁বিস্ফোরণ	-10.6553
▁raise	-10.6553
▁anywhere	-10.6553
nclud	-10.6554
▁sake	-10.6555
▁settle	-10.6557
▁ভাবছিলাম	-10.6557
▁রাশিয়ান	-10.6559
▁Eight	-10.6562
▁শুনলাম	-10.6562
▁opera	-10.6563
▁Ex	-10.6563
▁Last	-10.6564
▁early	-10.6567
▁Holy	-10.657
▁ট্রাক	-10.6572
▁কিন্তুু	-10.6572
▁পারলাম	-10.6577
▁নিব	-10.6581
▁পাগলা	-10.6585
▁তাকান	-10.6592
▁পক্ষে	-10.6597
▁Willy	-10.6599
▁Ben	-10.6608
▁লোকদের	-10.6611
▁দেন	-10.662
▁উঠতে	-10.6624
▁মর্	-10.6631
▁হচ্ছিল	-10.6636
▁hunter	-10.6641
▁বছরে	-10.6653
▁মানুষদের	-10.6654
▁শরীরের	-10.6656
▁পাতা	-10.668
▁রেখেছে	-10.6683
▁রাখি	-10.671
▁পাঠানো	-10.6716
round	-10.6731
▁উদ্	-10.6773
▁আবারও	-10.6788
▁অতি	-10.6795
আপনার	-10.6797
▁Ten	-10.6807
▁base	-10.6819
▁প্যান	-10.6838
▁ঐটা	-10.6844
▁ওপরে	-10.686
▁interest	-10.6863
▁sin	-10.6865
▁জানিয়ে	-10.6867
▁fair	-10.6894
পতি	-10.69
▁আগামী	-10.6907
▁sub	-10.6908
▁Morgana	-10.6908
▁Wadjda	-10.6908
▁chewing	-10.6908
▁discuss	-10.6908
▁perhaps	-10.6908
▁science	-10.6908
▁women	-10.6908
▁আ্যসগার্ড	-10.6908
▁ক্যান্সার	-10.6908
▁জরুরী	-10.6908
▁Little	-10.6908
▁Simon	-10.6908
▁champ	-10.6908
▁receive	-10.6908
▁video	-10.6908
▁ওয়াজদা	-10.6908
▁পাসপোর্ট	-10.6908
▁Creator	-10.6908
▁client	-10.6908
▁ব্রেন্ডা	-10.6908
▁Trust	-10.6908
▁লজ্জা	-10.6908
▁beginning	-10.6908
▁Bond	-10.6908
▁design	-10.6908
▁Step	-10.6908
▁speed	-10.6908
▁trans	-10.6908
▁লিফট	-10.6908
▁chose	-10.6908
▁চরম	-10.6908
▁corner	-10.6908
▁স্যুট	-10.6908
ক্ষেপ	-10.6908
▁Enough	-10.6908
▁পাল্টা	-10.6909
▁calm	-10.6909
▁চারপাশে	-10.6909
wisp	-10.6909
▁Dude	-10.6909
▁losing	-10.6909
▁স্টেশন	-10.6909
▁বিশাল	-10.691
▁সুস্থ	-10.6911
▁proud	-10.6911
▁list	-10.6914
▁Russian	-10.6914
▁sitting	-10.6915
▁বসন্ত	-10.6915
▁ফায়ার	-10.6915
▁দেখেন	-10.6915
▁বেড়ে	-10.6918
▁গেছো	-10.6919
▁উড়তে	-10.6925
vil	-10.6926
▁একমত	-10.6927
▁Pop	-10.6934
▁ক্যাম্প	-10.6937
▁যাচ্ছো	-10.6938
▁ট্রেনে	-10.6941
▁রাম	-10.6942
▁সরো	-10.6944
▁পালাও	-10.6945
▁কবে	-10.6951
▁রেডিও	-10.6952
Echo	-10.6956
▁টেনে	-10.6957
▁করবেনা	-10.696
আরে	-10.6972
▁walking	-10.6986
▁মারো	-10.6993
▁training	-10.6996
▁cra	-10.6997
▁closed	-10.7008
দেখ	-10.702
▁meeting	-10.7027
▁দিবেন	-10.7052
▁realize	-10.7054
▁যুদ্ধের	-10.7081
▁draw	-10.7094
▁পায়ে	-10.7106
▁অফিসে	-10.7139
▁এনেছে	-10.7157
সী	-10.7162
্যো	-10.7166
পক্ষে	-10.7176
▁গেছ	-10.7176
হাসি	-10.7183
down	-10.7187
▁অত্য	-10.7193
▁রেখ	-10.72
দূর	-10.7231
▁স্যা	-10.7243
▁prepar	-10.7257
ঙ	-10.7262
▁final	-10.727
▁চির	-10.7272
▁দাড়া	-10.7273
▁Actually	-10.7278
▁Council	-10.7278
▁Watson	-10.7278
▁driving	-10.7278
▁emergency	-10.7278
▁plenty	-10.7278
▁অনুভূতি	-10.7278
▁আক্রমণ	-10.7278
▁এক্সপ্লোরার	-10.7278
▁বৃদ্ধ	-10.7278
▁মেভিস	-10.7278
▁স্মৃতি	-10.7278
▁approach	-10.7278
▁military	-10.7278
▁freedom	-10.7278
▁পাল্টে	-10.7278
▁Reddy	-10.7278
▁Ryan	-10.7278
▁রাত্রি	-10.7278
▁রায়ান	-10.7278
▁নারনীয়া	-10.7278
▁Since	-10.7278
▁সংকেত	-10.7278
▁Mavis	-10.7278
▁চিকেন	-10.7278
▁Old	-10.7278
▁member	-10.7279
▁spot	-10.7279
▁পবন	-10.7279
▁Aunt	-10.7279
▁জ্বল	-10.7279
▁joke	-10.728
▁প্রভাব	-10.728
▁অন্তর	-10.728
▁MAN	-10.728
▁২৫	-10.7281
▁১৫	-10.7282
▁dare	-10.7282
▁কার্ড	-10.7282
▁কিনতে	-10.7282
aution	-10.7283
▁TV	-10.7284
▁master	-10.7284
▁ধুর	-10.7284
ified	-10.7284
▁ছুরি	-10.7285
▁১১	-10.7286
▁চাচ্ছিলাম	-10.7287
▁shop	-10.7287
▁lying	-10.7289
▁সরিয়ে	-10.7289
▁bone	-10.7289
▁পাকিস্তানি	-10.729
▁এখানকার	-10.7292
ula	-10.7295
▁ড্রাকুলা	-10.7298
▁Big	-10.7298
▁poor	-10.7298
▁fo	-10.7301
▁মরটি	-10.7302
▁Indian	-10.7306
ED	-10.7306
▁failed	-10.7306
▁ডানা	-10.7316
▁army	-10.7317
▁van	-10.7321
▁গ্রেস	-10.7322
▁শিকারী	-10.7322
▁হাফ	-10.7324
▁গ্যাস	-10.7325
▁উড়ে	-10.7327
▁dur	-10.7331
▁Norm	-10.7334
▁lay	-10.7337
▁prove	-10.7337
▁লক	-10.7338
▁missed	-10.7346
▁হয়েছিলো	-10.7349
▁Mann	-10.7358
▁Air	-10.7364
▁জাদুর	-10.7367
▁1:	-10.7373
বিদ	-10.7375
▁এইমাত্র	-10.7376
eath	-10.7379
▁older	-10.7379
▁নড়	-10.7379
▁notice	-10.7379
-1	-10.7385
▁আরাম	-10.7388
▁Plan	-10.7396
▁fucked	-10.7396
▁দেখছ	-10.7402
▁fat	-10.7403
▁অফিস	-10.7417
ব্লাহ	-10.7421
▁hire	-10.7421
▁lovely	-10.7427
▁প্রেমে	-10.7428
▁পক্ষ	-10.7443
IN	-10.7446
তম	-10.7449
▁সুখ	-10.7452
▁ইনি	-10.7452
▁fan	-10.7457
ঙ্	-10.7465
▁বুক	-10.7472
▁হেয়	-10.7475
▁lover	-10.7475
▁হিট	-10.7495
▁200	-10.7497
▁Drac	-10.7498
▁ছাড়াই	-10.7506
কড়া	-10.7528
▁বুজ	-10.7529
▁40	-10.7529
শক্তি	-10.7552
পাল	-10.7558
করণ	-10.757
▁গিয়েছি	-10.7574
▁সবগুলো	-10.7577
▁গাড়িটা	-10.7579
▁ভাবছি	-10.7621
দর্শন	-10.7635
▁Sea	-10.7659
▁মাত্রা	-10.7659
▁direct	-10.766
▁Amsterdam	-10.7663
▁Crazy	-10.7663
▁Grover	-10.7663
▁World	-10.7663
▁innocent	-10.7663
▁regret	-10.7663
▁suspect	-10.7663
▁tinker	-10.7663
▁অপারেশন	-10.7663
▁ক্রিসমাস	-10.7663
▁গ্র্যান্ট	-10.7663
▁ঘটছে	-10.7663
▁পরামর্শ	-10.7663
▁পার্থক্য	-10.7663
▁ভারতীয়	-10.7663
▁ভ্রমণ	-10.7663
▁লর্ড	-10.7663
▁সরাসরি	-10.7663
▁সাইমন	-10.7663
▁হায়ড্রা	-10.7663
▁হোভার্ট	-10.7663
▁Anything	-10.7663
▁Narnia	-10.7663
▁develop	-10.7663
▁nature	-10.7663
▁queen	-10.7663
▁তবুও	-10.7663
▁রান্না	-10.7663
▁Heads	-10.7663
▁Sometimes	-10.7663
▁জটিল	-10.7663
▁Shh	-10.7663
▁খাঁচা	-10.7663
▁পরিবেশ	-10.7663
▁switch	-10.7664
▁soft	-10.7664
▁কেইস	-10.7664
▁ধ্যাত	-10.7664
গন	-10.7664
স্যু	-10.7665
▁mouse	-10.7665
dical	-10.7665
▁সরাও	-10.7665
hmm	-10.7666
▁madam	-10.7666
▁রুমাল	-10.7667
▁path	-10.7668
▁সারাদিন	-10.7668
▁Nine	-10.7669
▁উনার	-10.767
▁ঢে	-10.767
▁meters	-10.767
▁নিষ্	-10.7675
▁খুলব	-10.7675
▁নিচ্ছে	-10.7676
▁Merr	-10.7681
▁ভালভাবে	-10.7682
▁officer	-10.7682
▁Want	-10.7683
▁অটো	-10.7683
▁দিলো	-10.769
▁পালাতে	-10.7691
▁wearing	-10.7701
▁Eric	-10.7701
▁মেয়েটি	-10.7705
▁bro	-10.7706
▁দেখিনি	-10.7707
▁leader	-10.7711
▁বলেছিলেন	-10.7712
▁মম	-10.7714
▁আমেরিকান	-10.7715
▁বিশ্বের	-10.7723
▁bother	-10.7727
▁allow	-10.7739
▁বন্ধুদের	-10.774
▁নেতা	-10.7744
▁দাগ	-10.7745
▁লাখ	-10.775
EM	-10.7756
▁দেশের	-10.7761
▁fate	-10.7763
▁শালার	-10.7798
▁হন	-10.78
▁দেশ	-10.7815
▁ঘুমাত	-10.7829
এম	-10.7836
uick	-10.7851
▁২০০	-10.7861
▁পেরেছে	-10.7867
▁উপকার	-10.7913
▁রোল	-10.7915
মিন	-10.7926
▁রস	-10.7951
▁জানলে	-10.7955
▁চাইছি	-10.7959
▁সেখান	-10.8009
▁পেরে	-10.8032
▁ভাষা	-10.8051
▁রয়ে	-10.8057
▁Seven	-10.8062
▁gentle	-10.8062
▁ভদ্র	-10.8063
SCREAM	-10.8063
▁Brenda	-10.8063
▁Goddamn	-10.8063
▁Grimhold	-10.8063
▁Hendricks	-10.8063
▁Kirby	-10.8063
▁Ofelia	-10.8063
▁Professor	-10.8063
▁Somebody	-10.8063
▁Veruca	-10.8063
▁arrive	-10.8063
▁empty	-10.8063
▁excuse	-10.8063
▁pattern	-10.8063
▁saving	-10.8063
▁themselves	-10.8063
▁অফেলিয়া	-10.8063
▁এন্ডারসন	-10.8063
▁ক্লাঙ্ক	-10.8063
▁গবেষণা	-10.8063
▁গুডউইন	-10.8063
▁জরুরি	-10.8063
▁ঝড়	-10.8063
▁ত্যাগ	-10.8063
▁পৌঁছা	-10.8063
▁সুতরাং	-10.8063
ফ্রান্স	-10.8063
▁glass	-10.8063
▁obvious	-10.8063
▁ইউনিট	-10.8063
▁কৃতজ্ঞ	-10.8063
▁প্রচুর	-10.8063
▁প্রস্তাব	-10.8063
▁Elinor	-10.8063
▁milk	-10.8063
▁ইয়েহ	-10.8063
▁Left	-10.8063
▁আলোচনা	-10.8063
▁Goodwin	-10.8063
▁স্থির	-10.8063
▁সত্যিকারের	-10.8063
▁Command	-10.8063
▁fresh	-10.8063
▁health	-10.8063
▁অতীত	-10.8063
▁Down	-10.8063
▁Dracula	-10.8063
▁ভরসা	-10.8063
▁organ	-10.8063
▁খতম	-10.8063
বদ্ধ	-10.8064
▁Paul	-10.8064
▁ফাইল	-10.8064
▁dust	-10.8064
▁pounds	-10.8064
▁ladies	-10.8064
▁lunch	-10.8064
▁secure	-10.8064
▁fairies	-10.8065
▁Must	-10.8065
▁clock	-10.8066
▁powerful	-10.8066
▁Most	-10.8067
▁Today	-10.8068
▁Morty	-10.8069
▁unless	-10.807
▁pool	-10.807
▁piss	-10.807
▁ড্যাডি	-10.8072
▁বহু	-10.8073
▁নামাও	-10.808
off	-10.8082
▁বড়দিন	-10.8082
▁লাশ	-10.8084
▁Send	-10.809
▁এমনটা	-10.8092
iva	-10.8098
▁হবো	-10.8099
▁figured	-10.8101
▁ভালোভাবে	-10.8103
▁closer	-10.8112
▁ভাবো	-10.8117
▁Spa	-10.8118
▁passed	-10.8122
▁গেট	-10.8126
▁মন্ত্র	-10.813
▁pop	-10.8131
▁হাওয়া	-10.8136
▁Bad	-10.8149
▁বিজ	-10.8149
▁tear	-10.815
▁বাহিনী	-10.8154
▁প্রত্যেকটা	-10.8154
▁সেরকম	-10.8154
▁নিরাপদে	-10.8159
▁সরকার	-10.8164
▁মারবে	-10.8171
▁brave	-10.8173
▁পড়ছে	-10.8178
▁ক্যান	-10.8205
▁আসছ	-10.821
▁হলেও	-10.8221
AY	-10.8234
▁nose	-10.8258
র্নি	-10.826
নেস	-10.8261
ংশ	-10.8291
▁হেলিকপ্টার	-10.8302
▁খুজ	-10.8311
▁বার্ন	-10.8316
স্থল	-10.8332
▁গে	-10.834
▁rig	-10.8351
▁গিয়েছিলে	-10.8365
work	-10.8369
load	-10.8369
year	-10.8369
ipped	-10.8376
▁খোঁজা	-10.8377
▁paint	-10.8377
hold	-10.84
▁উঠা	-10.8415
▁Sho	-10.843
tical	-10.8437
where	-10.8442
▁হোটেল	-10.8463
▁দাঁড়ান	-10.8464
▁পাকিস্তান	-10.8466
▁Tink	-10.8469
▁sec	-10.8472
্যাপ্টর	-10.848
▁Brody	-10.848
▁CASE	-10.848
▁Congratulations	-10.848
▁Kenton	-10.848
▁Kowalski	-10.848
▁Mahishmati	-10.848
▁Twenty	-10.848
▁claim	-10.848
▁drunk	-10.848
▁spread	-10.848
▁suggest	-10.848
▁yesterday	-10.848
▁অবৈধ	-10.848
▁অভিনন্দন	-10.848
▁অসাধারন	-10.848
▁অস্থির	-10.848
▁আমস্টারডাম	-10.848
▁গুরুত্ব	-10.848
▁ঘোষণা	-10.848
▁চিকিৎসা	-10.848
▁ছাগলছানা	-10.848
▁জাহান্নাম	-10.848
▁ধেত্তেরি	-10.848
▁নিঃশ্বাস	-10.848
▁পেগাসাস	-10.848
▁রাজকন্যা	-10.848
▁সন্ধ্যা	-10.848
▁diamond	-10.848
▁group	-10.848
▁চামড়া	-10.848
▁swear	-10.848
▁Know	-10.848
▁ঠিকঠাক	-10.848
graph	-10.848
▁smile	-10.848
▁link	-10.848
▁বিস্ম	-10.848
▁চালানো	-10.848
▁angel	-10.848
▁ব্রিজ	-10.848
▁bond	-10.848
▁Sound	-10.848
▁betray	-10.848
▁ক্ষুধার্ত	-10.848
▁চিহ্ন	-10.848
▁শ্যাম	-10.848
▁ভালবাসে	-10.848
▁bless	-10.848
▁south	-10.848
▁visual	-10.8481
▁অভিযোগ	-10.8481
▁cancer	-10.8481
▁prefer	-10.8481
▁ভাগ্যবান	-10.8481
▁dirt	-10.8481
▁totally	-10.8481
▁প্যাটস	-10.8482
▁কোথাকার	-10.8482
▁17	-10.8483
▁cheat	-10.8483
▁বুঝলাম	-10.8483
▁wave	-10.8484
▁ভাইয়ের	-10.8489
▁forgotten	-10.8492
▁দ্বীপ	-10.8493
▁বাবু	-10.8493
▁খোলো	-10.8494
▁হোটেলে	-10.8496
▁Tea	-10.8497
▁মুহূর্ত	-10.85
▁camera	-10.85
▁প্রমান	-10.8503
▁interested	-10.8505
▁এগো	-10.8506
▁পেয়েছো	-10.8507
▁সবচে	-10.8508
▁গিয়েছিলো	-10.8509
▁জমা	-10.8509
▁বাঁচতে	-10.8509
▁বেবি	-10.8511
▁finished	-10.8513
▁ওসব	-10.8514
▁post	-10.8514
▁driver	-10.8514
▁Won	-10.8515
▁রিং	-10.8515
oose	-10.8522
▁ক্রস	-10.8522
▁স্বাধীনতা	-10.8537
▁ছাড়বে	-10.8541
▁লোকটাকে	-10.8541
▁Fucking	-10.8554
র্জন	-10.8559
▁কিছুদিন	-10.8575
▁রেখেছিল	-10.8577
▁Men	-10.8578
▁কমে	-10.8579
▁অপেক্ষায়	-10.858
▁spin	-10.8583
▁Soon	-10.8587
ship	-10.8588
ক্ষিত	-10.8598
▁None	-10.8618
▁Fu	-10.8621
▁seek	-10.8637
ট্রি	-10.8646
▁চাইবে	-10.8649
নেট	-10.8651
unch	-10.8669
▁Matt	-10.8694
জাত	-10.8707
শ্ব	-10.8713
ically	-10.8723
▁পুল	-10.8724
▁গ্যা	-10.8732
▁পারেনি	-10.875
blood	-10.8803
পুরুষ	-10.8803
Why	-10.8804
মানুষ	-10.8804
▁হয়েছ	-10.8805
▁বানিয়েছি	-10.8814
▁শিপ	-10.8827
adies	-10.8837
ector	-10.8876
ju	-10.8888
▁decide	-10.8892
ogue	-10.8893
▁দ্বীপে	-10.89
hoo	-10.8912
▁Baahubali	-10.8914
▁DNA	-10.8914
▁Fleece	-10.8914
▁Horvath	-10.8914
▁Maudie	-10.8914
▁WOMAN	-10.8914
▁Zuzu	-10.8914
▁absolutely	-10.8914
▁advice	-10.8914
▁citizen	-10.8914
▁device	-10.8914
▁introduce	-10.8914
▁mainland	-10.8914
▁natural	-10.8914
▁permission	-10.8914
▁photo	-10.8914
▁support	-10.8914
▁terror	-10.8914
▁আইজ্যাক	-10.8914
▁কওলাস্কি	-10.8914
▁গুপ্তচর	-10.8914
▁ঘটা	-10.8914
▁ধাক্কা	-10.8914
▁নিয়ন্ত্রন	-10.8914
▁নেতৃত্ব	-10.8914
▁নোংরা	-10.8914
▁পুনরায়	-10.8914
▁বক্সিং	-10.8914
▁বর্তমান	-10.8914
▁বাজ্রাঙ্গি	-10.8914
▁মুখোমুখি	-10.8914
▁সাক্ষাৎ	-10.8914
▁German	-10.8914
▁Grandpa	-10.8914
▁location	-10.8914
▁relax	-10.8914
▁stories	-10.8914
▁সাঁতার	-10.8914
▁বিবাহ	-10.8914
▁dilly	-10.8914
▁লাগতে	-10.8914
▁insane	-10.8914
▁Link	-10.8914
▁নীচে	-10.8914
▁দায়ী	-10.8914
▁double	-10.8914
▁ভয়ঙ্কর	-10.8914
▁স্পাই	-10.8914
▁Copy	-10.8914
▁Isaac	-10.8914
species	-10.8914
▁আক্রমন	-10.8914
▁মার্টি	-10.8914
▁Noisy	-10.8915
▁কেন্টন	-10.8915
▁Pull	-10.8915
▁block	-10.8915
▁clever	-10.8916
▁Mister	-10.8916
▁detect	-10.8916
▁operation	-10.8916
▁মেরী	-10.8917
▁১৩	-10.8917
কোনো	-10.8918
▁fellow	-10.8918
▁গর্ত	-10.8919
▁কানে	-10.8919
▁নকল	-10.8919
▁crack	-10.8919
▁Four	-10.892
▁শুয়ে	-10.892
▁react	-10.8921
্যাকল	-10.8923
▁action	-10.8923
▁আসলান	-10.8924
▁Thor	-10.8924
▁gather	-10.8926
▁ছাপ	-10.8928
▁State	-10.8928
▁Drop	-10.893
▁পুরোনো	-10.8931
▁rip	-10.8936
▁stone	-10.8936
▁দেখানোর	-10.8936
▁button	-10.8939
▁রং	-10.8939
▁টাইম	-10.8939
▁মরবে	-10.8939
▁drag	-10.894
▁সাজা	-10.894
▁লাইট	-10.8948
▁Real	-10.8953
▁বাঁচাও	-10.8958
▁জানানো	-10.8962
▁hello	-10.8978
▁following	-10.8984
▁আগ	-10.8991
▁dock	-10.8996
▁আন্ট	-10.8998
▁পাঠাও	-10.9002
▁ফ্রে	-10.9002
▁পড়ার	-10.9008
▁সুন্দরী	-10.9011
▁যাবার	-10.9018
▁hug	-10.902
▁বেড	-10.9031
প্রাই	-10.9059
gged	-10.9069
▁song	-10.907
্যান্স	-10.9097
SP	-10.9122
▁70	-10.9159
cho	-10.9214
সহ্য	-10.9218
ized	-10.9246
▁ছিন	-10.9249
mail	-10.925
▁মায়া	-10.9251
huh	-10.9258
পাশে	-10.9267
How	-10.9275
ja	-10.9287
▁ভাঙা	-10.9295
▁কোষ	-10.9299
▁পরিবর্ত	-10.9312
ন্দি	-10.9316
▁Del	-10.9335
▁পুরোটা	-10.9338
five	-10.9344
▁ওঠা	-10.9365
মুদ্র	-10.9366
▁ঘোরা	-10.9369
▁লেফট	-10.9369
HIRO	-10.9369
▁Abdullah	-10.9369
▁Careful	-10.9369
▁Clarisse	-10.9369
▁Dingwall	-10.9369
▁Epps	-10.9369
▁Glanton	-10.9369
▁Solomon	-10.9369
▁Sweet	-10.9369
▁Tadashi	-10.9369
▁Wistrom	-10.9369
▁alright	-10.9369
▁apologize	-10.9369
▁arrange	-10.9369
▁breakfast	-10.9369
▁courage	-10.9369
▁damage	-10.9369
▁degree	-10.9369
▁government	-10.9369
▁অনুসন্ধান	-10.9369
▁অবশেষে	-10.9369
▁ওয়াটার্স	-10.9369
▁কৌশল	-10.9369
▁ক্লাব	-10.9369
▁নড়াচড়া	-10.9369
▁পৌছা	-10.9369
▁মানসিক	-10.9369
▁সন্তুষ্ট	-10.9369
▁সিক্রেট	-10.9369
GRUNT	-10.9369
▁radio	-10.9369
শূন্য	-10.9369
▁Again	-10.9369
▁became	-10.9369
▁ইঞ্জিনিয়ার	-10.9369
▁ভালোবাসো	-10.9369
▁Work	-10.9369
▁cream	-10.9369
▁তাঁদের	-10.9369
▁নাগরিক	-10.9369
▁Aslan	-10.9369
▁বেনজি	-10.9369
▁extra	-10.9369
▁duty	-10.9369
▁nut	-10.9369
▁music	-10.9369
▁hiding	-10.9369
▁রেগে	-10.9369
▁বস্তু	-10.9369
▁মাতাল	-10.9369
▁provide	-10.9369
▁বোতাম	-10.9369
▁আবেগ	-10.9369
▁পয়সা	-10.9369
▁Secretary	-10.9369
▁transport	-10.937
▁thief	-10.937
▁স্টিভেন	-10.937
▁রাজত্ব	-10.937
▁borrow	-10.937
▁screw	-10.937
▁wheel	-10.9371
▁asset	-10.9371
▁large	-10.9372
▁ধাপ	-10.9372
▁জাপান	-10.9372
▁Unless	-10.9372
▁বুড়ি	-10.9372
▁ধনী	-10.9372
▁punch	-10.9372
▁অর্ধ	-10.9372
▁ice	-10.9373
▁24	-10.9374
▁22	-10.9374
কেন্দ্র	-10.9374
▁Lock	-10.9375
▁tight	-10.9375
▁চাইনিজ	-10.9376
▁Fred	-10.9376
▁north	-10.9378
▁সন্ত্রাসী	-10.9379
▁বুঝেছো	-10.9384
▁সাধারণত	-10.9389
▁ইপস	-10.939
▁গেম	-10.9401
▁interesting	-10.9401
মাণ	-10.9403
▁crying	-10.9404
▁ফেলবো	-10.9408
▁jumped	-10.9409
▁লাগাও	-10.9412
▁পারছো	-10.9413
▁সরানো	-10.9413
▁wondering	-10.9416
▁উঠো	-10.9417
▁বোঝাতে	-10.9421
▁ভরা	-10.9424
▁followed	-10.9431
▁দুজনকে	-10.9431
▁ব্রু	-10.9439
▁বুকে	-10.9444
▁বলিস	-10.9448
আস	-10.9455
▁সাপ	-10.9456
room	-10.9459
▁সমান	-10.946
▁করেছিলো	-10.9485
▁wind	-10.9488
▁none	-10.9504
▁জানাতে	-10.9512
▁Count	-10.9525
ভেন	-10.9535
ative	-10.9551
ppe	-10.9554
▁পশ্চিম	-10.9559
▁mate	-10.956
▁সরি	-10.9566
▁NO	-10.9575
বাসী	-10.9582
▁mode	-10.9585
▁Fi	-10.9605
▁পিঠ	-10.9637
▁ভূ	-10.9668
▁সিল	-10.9692
▁Jo	-10.9703
Ma	-10.9727
♪	-10.9734
আমাকে	-10.9734
coming	-10.9735
born	-10.9743
চ্চা	-10.9751
▁বললেন	-10.9768
OR	-10.9784
iving	-10.9803
▁scare	-10.9821
▁বিছানা	-10.9834
▁inform	-10.9842
hief	-10.9844
▁দৃশ্য	-10.9845
Almost	-10.9845
NAAMEH	-10.9845
▁Abagnale	-10.9845
▁Happy	-10.9845
▁Houten	-10.9845
▁MUTO	-10.9845
▁Malekith	-10.9845
▁Pawan	-10.9845
▁Police	-10.9845
▁appreciate	-10.9845
▁coffee	-10.9845
▁faith	-10.9845
▁focus	-10.9845
▁knife	-10.9845
▁prophecy	-10.9845
▁radiation	-10.9845
▁type	-10.9845
▁অনুসরন	-10.9845
▁অ্যাবাগ্নেল	-10.9845
▁তলোয়ার	-10.9845
▁নিষেধ	-10.9845
▁পিচ্চি	-10.9845
▁প্রতিশোধ	-10.9845
▁বাথরুম	-10.9845
▁ব্যাখ্যা	-10.9845
▁ভবিষ্যদ্বাণী	-10.9845
▁ম্যালেকিথ	-10.9845
▁রহস্য	-10.9845
▁সংগ্রহ	-10.9845
▁সক্রিয়	-10.9845
▁সলোমন	-10.9845
▁সার্ভিস	-10.9845
▁সিগারেট	-10.9845
▁স্পেশাল	-10.9845
নির্দিষ্ট	-10.9845
▁Forgive	-10.9845
▁captain	-10.9845
▁favorite	-10.9845
▁tiger	-10.9845
▁জার্মান	-10.9845
▁বিভাগ	-10.9845
▁হঠাৎ	-10.9845
▁apart	-10.9845
▁repeat	-10.9845
▁কার্বি	-10.9845
▁ছিঁড়	-10.9845
▁সুবিধা	-10.9845
▁plate	-10.9845
▁fought	-10.9845
▁কাউন্ট	-10.9845
▁mystery	-10.9845
▁knee	-10.9845
▁হাতিয়ার	-10.9845
▁সাক্ষাত	-10.9845
▁crawl	-10.9845
▁Krei	-10.9845
▁টিভি	-10.9845
uiet	-10.9845
▁কাঁচ	-10.9846
▁collect	-10.9846
▁Benji	-10.9846
▁rice	-10.9846
▁hook	-10.9846
▁আরেকটু	-10.9846
▁invent	-10.9846
▁rise	-10.9846
▁বীজ	-10.9846
▁Anyway	-10.9847
▁blade	-10.9847
▁airport	-10.9847
▁শপথ	-10.9847
▁sweetie	-10.9848
▁Someone	-10.9848
▁proper	-10.9848
▁সর্বদা	-10.9848
▁যথা	-10.9848
▁পাগলামি	-10.9848
▁14	-10.9849
▁Death	-10.9849
▁Operat	-10.9849
▁CHA	-10.985
▁জুড়ে	-10.985
▁বেতন	-10.985
▁bigger	-10.985
▁অর্জন	-10.9851
▁ডাইনি	-10.9851
▁Cut	-10.9851
▁চলা	-10.9851
▁Pakistani	-10.9852
▁mice	-10.9852
▁অ্যালেন	-10.9852
▁চান্দ	-10.9853
▁কতক্ষণ	-10.9853
▁DU	-10.9854
▁Allah	-10.9858
▁Aah	-10.9865
▁stronger	-10.9872
▁allowed	-10.9872
মেইন	-10.9873
▁মন্দ	-10.9874
▁বেকি	-10.9875
hood	-10.9876
▁দেখছো	-10.9878
▁দেখছে	-10.9881
▁ভালুক	-10.9884
▁শিখা	-10.9885
▁দেখবো	-10.9886
টাউন	-10.9891
▁ইলা	-10.9891
▁manage	-10.9891
umber	-10.9896
▁তাড়া	-10.9905
AH	-10.9909
▁করেছিলেন	-10.9909
▁উন্নতি	-10.991
▁Pan	-10.9912
▁শুনো	-10.9915
▁বললো	-10.9916
জ্ঞ	-10.9922
▁forward	-10.993
▁তালা	-10.9932
বন্ধ	-10.9979
▁হট	-10.9994
▁৫০০	-11.0012
গ্ন	-11.0015
▁ভাঙ্গা	-11.0019
SI	-11.0034
▁বইটা	-11.0041
মুখ	-11.0055
▁কিনব	-11.0066
▁বদল	-11.0069
▁বাস্তবতা	-11.0072
▁ইলিসিয়ামে	-11.0076
▁বালি	-11.0092
▁বাচ্চাটা	-11.0104
yard	-11.0158
▁লেখ	-11.0183
▁হিসাব	-11.0202
▁বুঝছ	-11.0216
▁cute	-11.0229
place	-11.023
বাহিনী	-11.0232
এখন	-11.0235
two	-11.0236
▁ব্যাটা	-11.0237
Who	-11.0238
that	-11.0282
মূলক	-11.0335
ability	-11.034
▁জাদুকর	-11.0341
▁গুরু	-11.0343
▁danger	-11.0344
▁High	-11.0344
▁birth	-11.0345
▁ব্যাক্তি	-11.0345
▁swim	-11.0345
dimension	-11.0345
CHUCKLES	-11.0345
▁Beautiful	-11.0345
▁Relax	-11.0345
▁Thalia	-11.0345
▁address	-11.0345
▁border	-11.0345
▁bright	-11.0345
▁celebrat	-11.0345
▁college	-11.0345
▁custody	-11.0345
▁downstairs	-11.0345
▁enemies	-11.0345
▁families	-11.0345
▁guarantee	-11.0345
▁incredible	-11.0345
▁kitchen	-11.0345
▁necessary	-11.0345
▁palace	-11.0345
▁patient	-11.0345
▁sudden	-11.0345
▁survival	-11.0345
▁thrust	-11.0345
▁universe	-11.0345
▁অবতরণ	-11.0345
▁আবিষ্কার	-11.0345
▁ইংরেজ	-11.0345
▁উঁচু	-11.0345
▁ক্লেয়ার	-11.0345
▁গ্লুভার	-11.0345
▁জেনারেল	-11.0345
▁ঢুকতে	-11.0345
▁তাদাশি	-11.0345
▁প্রধানমন্ত্রী	-11.0345
▁ফিউরি	-11.0345
▁বিনিময়ে	-11.0345
▁বিস্ময়কর	-11.0345
▁সিকিউরিটি	-11.0345
▁হাউটেন	-11.0345
▁club	-11.0345
▁remind	-11.0345
▁simply	-11.0345
▁worst	-11.0345
▁দক্ষিণ	-11.0345
▁মানবজাতি	-11.0345
▁সিংহাসন	-11.0345
▁হারামী	-11.0345
▁Becky	-11.0345
▁smoke	-11.0345
▁সংরক্ষণ	-11.0345
▁itself	-11.0345
▁আংটি	-11.0345
▁বিজয়ী	-11.0345
▁সমাপ্তি	-11.0345
▁মঙ্গল	-11.0345
পদার্থ	-11.0345
▁ইথার	-11.0345
▁neck	-11.0345
▁ব্যাবসা	-11.0345
▁mercy	-11.0345
▁যুগ	-11.0345
▁Stevens	-11.0345
▁planning	-11.0345
▁স্বর্গে	-11.0345
▁above	-11.0345
▁blame	-11.0345
▁defense	-11.0345
▁alarm	-11.0346
▁রজার্স	-11.0346
▁Though	-11.0346
▁General	-11.0346
▁horr	-11.0346
▁ব্যক্তিগত	-11.0346
▁held	-11.0346
▁অঞ্চল	-11.0347
▁passport	-11.0347
▁everywhere	-11.0347
▁slave	-11.0348
▁নোট	-11.0348
▁16	-11.0348
▁থামাতে	-11.0348
▁সামলাত	-11.035
▁মধু	-11.035
▁21	-11.0351
▁stuck	-11.0351
▁Home	-11.0352
▁পানীয়	-11.0353
▁কাঠ	-11.0354
▁সুখী	-11.0355
▁among	-11.0355
▁কয়েকজন	-11.0356
▁safety	-11.0357
▁due	-11.0357
▁tail	-11.0358
▁সম্মানিত	-11.0358
▁লেজ	-11.0358
▁জুতো	-11.0358
▁সঙ্গী	-11.036
hile	-11.0361
▁Save	-11.0362
মেইল	-11.0362
▁এগুলা	-11.0364
▁ভরে	-11.0365
▁Pick	-11.0366
▁ফেলেছো	-11.0366
▁greatest	-11.0371
▁Land	-11.0377
▁Slow	-11.0377
▁রণ	-11.0383
▁কুপ	-11.0384
▁পাইপ	-11.0391
▁engineer	-11.0392
▁swing	-11.0402
▁অনেকদিন	-11.0414
▁আহত	-11.042
▁ব্যাক	-11.042
▁টমি	-11.0426
দ্দ	-11.0444
▁সাধ	-11.0461
▁চেনা	-11.0498
ল্ল	-11.0524
▁লেক	-11.0556
▁অনুষ্ঠানে	-11.0566
খানা	-11.058
▁শট	-11.0584
▁লড়াইয়ে	-11.0599
ফেরা	-11.0667
স্যার	-11.0755
জীবন	-11.0761
pack	-11.0791
rob	-11.0799
▁শুনবে	-11.0834
▁ভেবেছ	-11.0836
▁গিয়েছ	-11.0836
▁ধৈর্য	-11.0842
CA	-11.0852
▁উড়া	-11.0855
▁whe	-11.086
▁গজ	-11.0861
▁Coop	-11.0869
wood	-11.0871
ology	-11.0871
বাহুবালি	-11.0871
▁Absolutely	-11.0871
▁Callaghan	-11.0871
▁Caroline	-11.0871
▁Claire	-11.0871
▁Edmund	-11.0871
▁Exactly	-11.0871
▁FBI	-11.0871
▁Friend	-11.0871
▁Lieutenant	-11.0871
▁Neytiri	-11.0871
▁Pegasus	-11.0871
▁Raptor	-11.0871
▁Telmarine	-11.0871
▁asshole	-11.0871
▁breach	-11.0871
▁circle	-11.0871
▁custom	-11.0871
▁deserve	-11.0871
▁disturb	-11.0871
▁elevator	-11.0871
▁energy	-11.0871
▁genius	-11.0871
▁throat	-11.0871
▁vehicle	-11.0871
▁অদৃশ্য	-11.0871
▁উইসট্রম	-11.0871
▁উপস্থিত	-11.0871
▁এক্ষুনি	-11.0871
▁গ্রেফতার	-11.0871
▁জর্ডান	-11.0871
▁নিউক্লিয়া	-11.0871
▁নিজস্ব	-11.0871
▁নেয়তিরি	-11.0871
▁প্রাসাদ	-11.0871
▁বাজ্রাংবালি	-11.0871
▁ভেঙে	-11.0871
▁মক্কেল	-11.0871
▁ষাঁড়	-11.0871
▁সর্বোচ্চ	-11.0871
▁সাইক্লোপস	-11.0871
▁সিগন্যাল	-11.0871
▁Flash	-11.0871
▁memory	-11.0871
▁কলিন্স	-11.0871
▁গোয়েন্দা	-11.0871
▁ঢোকা	-11.0871
▁বিভিন্ন	-11.0871
▁মিসাইল	-11.0871
▁Honey	-11.0871
▁crime	-11.0871
▁horse	-11.0871
▁wedding	-11.0871
▁Human	-11.0871
▁invited	-11.0871
▁sword	-11.0871
▁snow	-11.0871
▁truly	-11.0871
▁Phil	-11.0871
▁Auto	-11.0871
▁কার্রলা	-11.0871
▁Aether	-11.0871
▁খুঁজতে	-11.0871
connect	-11.0871
▁bucks	-11.0871
▁Gower	-11.0871
▁bathroom	-11.0872
▁দখল	-11.0872
▁barely	-11.0872
▁তলায়	-11.0872
▁assume	-11.0872
▁Adam	-11.0872
▁Grand	-11.0872
▁trapped	-11.0872
▁transfer	-11.0872
▁লাইফ	-11.0872
▁Angel	-11.0873
▁Jason	-11.0873
▁remove	-11.0873
▁defend	-11.0873
▁loose	-11.0873
▁Princess	-11.0873
▁woods	-11.0873
▁সংযোগ	-11.0873
▁Fury	-11.0874
▁হারাতে	-11.0874
▁Ever	-11.0874
▁spoke	-11.0874
▁bump	-11.0875
▁18	-11.0875
▁আরেকজন	-11.0875
▁আগ্রহী	-11.0876
▁host	-11.0876
▁দিতাম	-11.0877
▁ছায়া	-11.0877
▁ঠিকানা	-11.0878
▁ডুবে	-11.0879
▁issue	-11.0879
ON	-11.0879
▁Fair	-11.088
▁বসুন	-11.088
▁Wake	-11.0881
▁ব্যাস্ত	-11.0881
▁Elle	-11.0881
▁sever	-11.0882
▁ল্যাব	-11.0882
▁protection	-11.0882
▁দুষ্ট	-11.0883
▁চমক	-11.0884
▁loss	-11.0884
▁বুঝিয়ে	-11.0884
▁বিছানায়	-11.0884
▁পাত্র	-11.0885
▁fake	-11.0885
▁ফক্স	-11.0886
▁জোড়া	-11.0887
▁ভাষায়	-11.0887
▁Mission	-11.0887
▁খুজতে	-11.0888
▁fence	-11.089
▁dry	-11.0891
▁অ্যামেরিকান	-11.0892
▁হাড়	-11.0893
▁agreed	-11.0895
▁দুধ	-11.0895
▁এগুলি	-11.0898
verse	-11.0904
▁ঝামেলায়	-11.0904
▁করুক	-11.0907
▁হালকা	-11.0909
ধন	-11.092
▁intern	-11.0921
▁বউ	-11.0937
▁দিয়েছো	-11.0947
ouch	-11.0962
▁Maria	-11.0966
▁উহ	-11.0983
▁Far	-11.0986
1,000	-11.0997
▁ফিট	-11.1006
▁মোড়	-11.1037
▁শিব	-11.1045
বাবা	-11.1046
▁লুকানো	-11.1051
▁চাচ্ছ	-11.1061
corn	-11.1065
▁মাইক	-11.1076
▁দম	-11.1079
▁clan	-11.1169
▁উচ্চতা	-11.1173
থি	-11.1186
▁clo	-11.122
▁slip	-11.1312
house	-11.1319
র্ধ	-11.1326
▁পালানো	-11.1338
back	-11.1347
:00	-11.1349
▁agree	-11.1402
▁Pakistan	-11.1419
সংখ্য	-11.1423
▁sim	-11.1426
▁Black	-11.1427
▁স্বাস্থ্য	-11.1427
▁ঝুল	-11.1427
BOBBLE	-11.1427
GHS	-11.1427
▁Caspian	-11.1427
▁Gentlemen	-11.1427
▁Goodbye	-11.1427
▁Hamazaki	-11.1427
▁Jordan	-11.1427
▁Shiva	-11.1427
▁Thomas	-11.1427
▁afternoon	-11.1427
▁criminal	-11.1427
▁discover	-11.1427
▁evidence	-11.1427
▁excited	-11.1427
▁joking	-11.1427
▁nurse	-11.1427
▁opportunity	-11.1427
▁original	-11.1427
▁recognize	-11.1427
▁rescue	-11.1427
▁responsible	-11.1427
▁roof	-11.1427
▁separate	-11.1427
▁student	-11.1427
▁success	-11.1427
▁surface	-11.1427
▁অতিরিক্ত	-11.1427
▁অভ্যাস	-11.1427
▁আবদুল্লাহ	-11.1427
▁আশ্চর্য	-11.1427
▁উজ্জ্বল	-11.1427
▁উপকূল	-11.1427
▁এফবিআই	-11.1427
▁ঘুরিয়ে	-11.1427
▁ম্যানুয়াল	-11.1427
▁যাইহোক	-11.1427
▁শিল্প	-11.1427
▁Moreau	-11.1427
▁ক্যান্ডি	-11.1427
▁ক্যালাগান	-11.1427
▁টেলমারিন	-11.1427
▁দাদীমা	-11.1427
▁ভীষ	-11.1427
▁সোর্স	-11.1427
▁স্পাইডার	-11.1427
▁bottom	-11.1427
▁টুকরা	-11.1427
▁William	-11.1427
▁comfort	-11.1427
▁somehow	-11.1427
▁battle	-11.1427
▁সাধারন	-11.1427
brook	-11.1427
▁খুলতে	-11.1427
▁status	-11.1427
▁পরোয়া	-11.1427
▁হেনরি	-11.1427
▁Eyes	-11.1427
▁psych	-11.1427
▁ল্যারি	-11.1427
▁Miller	-11.1427
▁distance	-11.1427
▁Korea	-11.1427
▁ড্রেস	-11.1427
▁swimming	-11.1427
▁Glen	-11.1427
▁বেচারা	-11.1427
▁যন্ত্রণা	-11.1427
চূড়া	-11.1427
▁accu	-11.1427
▁কসম	-11.1427
▁Henry	-11.1427
▁Room	-11.1427
পুর্ন	-11.1428
▁কিউট	-11.1428
▁ব্যাবস্থা	-11.1428
▁pressure	-11.1428
phase	-11.1428
▁Play	-11.1428
craft	-11.1428
▁assist	-11.1429
▁নার্স	-11.1429
▁গোল্ড	-11.1429
▁প্রশিক্ষণ	-11.1429
▁ফেরার	-11.1429
▁টিংকার	-11.1429
▁গতকাল	-11.1429
▁hoping	-11.143
▁Baby	-11.143
▁আর্মি	-11.143
▁Jump	-11.143
▁Half	-11.143
▁বসবাস	-11.143
▁গাওয়ার	-11.143
▁edge	-11.143
▁দেরী	-11.1431
▁বিশ্বস্ত	-11.1431
▁ফ্লোর	-11.1431
▁নরকে	-11.1431
▁Better	-11.1433
▁মিলিয়ে	-11.1433
▁মার্ক	-11.1433
▁Brue	-11.1433
▁কতটুকু	-11.1433
▁কন্যা	-11.1434
▁useless	-11.1434
▁তীর	-11.1435
▁সাইন	-11.1436
▁ড্রাইভার	-11.1436
▁উড়িয়ে	-11.1437
গ্রস্ত	-11.1437
▁মারিয়া	-11.1438
▁বাকী	-11.1438
▁Moon	-11.1439
▁থামুন	-11.1439
▁গ্ল	-11.1439
▁তালিয়া	-11.1439
▁চেনো	-11.144
▁FR	-11.1443
▁পাছা	-11.1444
▁বাবল	-11.1444
▁reality	-11.1444
▁certainly	-11.1445
▁stage	-11.1447
▁আমদের	-11.145
▁loan	-11.1453
▁সাহসী	-11.1454
▁জীব	-11.1454
▁তিনজন	-11.1455
▁rent	-11.1456
▁প্রথমবার	-11.1459
▁prepared	-11.146
▁Forge	-11.1464
▁নেবো	-11.1465
▁প্রদর্শ	-11.1468
▁আটকাতে	-11.1478
▁দিয়েছিলো	-11.1483
▁বুঝাতে	-11.1487
HA	-11.1491
▁দুর্বলতা	-11.1497
▁সালে	-11.1498
▁দৌড়া	-11.151
েকশন	-11.158
ভূমি	-11.1606
তব্য	-11.1687
EN	-11.1715
▁anti	-11.1753
▁ফেলেছ	-11.177
ained	-11.1791
ব্বা	-11.1814
▁huge	-11.1862
যোগ্য	-11.1913
শান্ত	-11.1917
lick	-11.1929
▁দিত	-11.1984
▁নিশ্চ	-11.1997
▁এজন্য	-11.2
▁ড্যাড	-11.2001
▁ম্যাট	-11.2006
▁চ্যাম্প	-11.2015
▁থ্রাস্ট	-11.2015
whisper	-11.2015
▁Bajarangbali	-11.2015
▁Chicago	-11.2015
▁Control	-11.2015
▁Cullen	-11.2015
▁Cyclops	-11.2015
▁Hanratty	-11.2015
▁Minister	-11.2015
▁Seriously	-11.2015
▁Veronica	-11.2015
▁Wybie	-11.2015
▁capture	-11.2015
▁jungle	-11.2015
▁professor	-11.2015
▁religio	-11.2015
▁twenty	-11.2015
▁yourselves	-11.2015
▁অক্সিজেন	-11.2015
▁ইতোমধ্যে	-11.2015
▁উইলিয়াম	-11.2015
▁উল্টো	-11.2015
▁গ্লেনব্রুক	-11.2015
▁ঝাপ	-11.2015
▁ড্রিংক	-11.2015
▁ঢুকিয়ে	-11.2015
▁তৃতীয়	-11.2015
▁নির্বাচ	-11.2015
▁নির্বোধ	-11.2015
▁পদ্ধতি	-11.2015
▁পৌছে	-11.2015
▁বেঁধে	-11.2015
▁মহেস্মতি	-11.2015
▁মিথ্যে	-11.2015
▁লেফটেন্যান্ট	-11.2015
▁সেক্রেটারি	-11.2015
▁হাস্যকর	-11.2015
▁Special	-11.2015
▁Spider	-11.2015
▁century	-11.2015
▁process	-11.2015
▁uniform	-11.2015
▁অসীম	-11.2015
▁নমুনা	-11.2015
▁মৃদু	-11.2015
▁লাঠি	-11.2015
GROAN	-11.2015
▁Kofi	-11.2015
▁Loki	-11.2015
▁affect	-11.2015
▁depend	-11.2015
▁drown	-11.2015
▁function	-11.2015
▁recover	-11.2015
▁snake	-11.2015
▁study	-11.2015
▁আতঙ্ক	-11.2015
▁আম্মু	-11.2015
▁Conners	-11.2015
▁admit	-11.2015
▁scream	-11.2015
▁ওয়াইবি	-11.2015
▁Break	-11.2015
▁fuel	-11.2015
▁social	-11.2015
▁বিরক্তিকর	-11.2015
▁বিশৃঙ্খলা	-11.2015
▁যিনি	-11.2015
▁Yep	-11.2015
▁চাবায়	-11.2015
▁মশাই	-11.2015
▁Tommy	-11.2015
▁অভিযান	-11.2015
▁flu	-11.2015
▁তুলনায়	-11.2015
▁সংস্থা	-11.2015
▁প্রত্যা	-11.2015
▁Bob	-11.2015
▁উকিল	-11.2015
▁প্রেমিকা	-11.2015
RAT	-11.2015
▁trace	-11.2016
▁identi	-11.2016
▁attend	-11.2016
▁ছড়া	-11.2016
▁কাঁটা	-11.2016
▁noise	-11.2016
generat	-11.2016
▁sale	-11.2016
▁Highness	-11.2016
▁স্ট্যা	-11.2017
▁Mike	-11.2017
▁উপযুক্ত	-11.2018
▁devil	-11.2018
▁সরাতে	-11.2018
শ্চিন্ত	-11.2018
▁Bert	-11.2018
▁ডাটা	-11.2018
▁যুক্তি	-11.2018
▁বাঁচানোর	-11.2018
▁দাড়িয়ে	-11.2018
▁ইদুর	-11.202
▁fift	-11.2021
▁নাটক	-11.2021
▁image	-11.2022
▁taxi	-11.2022
▁trap	-11.2022
▁lesson	-11.2022
▁Witch	-11.2024
▁অপরাধী	-11.2024
▁চাচ্ছো	-11.2026
▁বোকামি	-11.2026
▁পেশা	-11.2026
▁Tank	-11.2026
▁গ্রীমহোল্ডটা	-11.2027
▁অন্ধ	-11.2027
▁mention	-11.2028
▁হুমকি	-11.203
▁ভাবলাম	-11.203
▁যতক্ষ	-11.2033
▁অন্যরকম	-11.2034
▁Nah	-11.2036
▁এতদিন	-11.2036
▁দেখাচ্ছি	-11.2042
▁খনি	-11.2045
▁Use	-11.2045
▁Bah	-11.2048
▁pig	-11.2054
▁দেখেছিলাম	-11.2054
▁লোভ	-11.2055
▁আনছি	-11.2067
▁ya	-11.2097
▁mass	-11.2114
HAN	-11.2153
▁অঙ্গ	-11.2156
▁যাদু	-11.2159
▁নরম	-11.2167
▁সক্ষম	-11.2184
মার্	-11.2187
rack	-11.2189
▁bath	-11.2202
▁ভাত	-11.224
ভেদ	-11.2332
▁ইলিসিয়াম	-11.2343
AGE	-11.2344
▁অগ্র	-11.2359
▁অনুষ্ঠান	-11.2369
়	-11.2472
▁cab	-11.2509
▁থামানো	-11.251
দুজনেই	-11.2514
ভূত	-11.2528
যখন	-11.2529
তোমাকে	-11.253
এখানে	-11.2537
সবাই	-11.2556
▁সঙ্গ	-11.2607
TIN	-11.2611
▁কাদা	-11.2627
▁অপরাধ	-11.263
পূর্ন	-11.2636
▁গর্ব	-11.2636
▁বিস্ফোর	-11.2636
pound	-11.264
CLANK	-11.264
STAMMER	-11.264
▁Mercedes	-11.264
▁Mozambique	-11.264
▁Patsey	-11.264
▁Poseidon	-11.264
▁Probably	-11.264
▁attempt	-11.264
▁complicated	-11.264
▁dancing	-11.264
▁experience	-11.264
▁familiar	-11.264
▁immorta	-11.264
▁journey	-11.264
▁medicine	-11.264
▁miracle	-11.264
▁nervous	-11.264
▁otherwise	-11.264
▁ourselves	-11.264
▁possess	-11.264
▁prevent	-11.264
▁sorcerer	-11.264
▁strike	-11.264
▁surgery	-11.264
▁sweetheart	-11.264
▁throne	-11.264
▁upstairs	-11.264
▁অনুযায়ী	-11.264
▁অস্বাভাবিক	-11.264
▁আশ্রয়	-11.264
▁ইউনিফর্ম	-11.264
▁ওয়ার্ল্ড	-11.264
▁ক্ষুদ্র	-11.264
▁ঘুষি	-11.264
▁জেসিকা	-11.264
▁দেখাশোনা	-11.264
▁দৈত্য	-11.264
▁নিঃসন্দেহে	-11.264
▁পঞ্চাশ	-11.264
▁প্রক্রিয়া	-11.264
▁ফলাফল	-11.264
▁ফুসফুস	-11.264
▁বরাবর	-11.264
▁বিদ্রোহ	-11.264
▁ভারসাম্য	-11.264
▁মাঝখানে	-11.264
▁মুহুর্তে	-11.264
▁মোজাম্বিকে	-11.264
▁যন্ত্রপাতি	-11.264
▁সিঁড়ি	-11.264
▁সিরিয়াস	-11.264
▁হ্যানড্রিক্স	-11.264
▁Guess	-11.264
▁general	-11.264
▁obey	-11.264
▁object	-11.264
▁গ্রুপ	-11.264
▁প্রজন্ম	-11.264
▁প্রহরী	-11.264
▁বিশ্বাসঘাতক	-11.264
▁মাইক্রোবট	-11.264
▁মুরগি	-11.264
▁Erik	-11.264
▁Larry	-11.264
▁current	-11.264
▁flesh	-11.264
▁অপমান	-11.264
shik	-11.264
▁Angus	-11.264
▁Street	-11.264
▁connection	-11.264
▁shame	-11.264
▁কনারস	-11.264
▁শিক্ষক	-11.264
▁Salas	-11.264
▁নিশানা	-11.264
▁IMF	-11.264
▁snap	-11.264
▁লড়তে	-11.264
▁সহায়তা	-11.264
▁ঢাল	-11.264
▁নর্ম	-11.264
▁shift	-11.264
▁zone	-11.264
▁মেসেজ	-11.264
▁shirt	-11.264
▁আত্ন	-11.264
▁চার্জ	-11.264
▁lift	-11.264
▁কান্না	-11.264
▁মাচো	-11.264
▁ম্যাজিক	-11.264
▁সালাস	-11.264
▁সৃষ্টিকর্তা	-11.264
▁prize	-11.264
▁Girl	-11.264
▁ফাঁস	-11.264
▁সম্পদ	-11.264
▁task	-11.264
▁অভিনয়	-11.2641
▁Glad	-11.2641
▁উভয়	-11.2641
▁pants	-11.2641
▁cheer	-11.2641
▁হারাবে	-11.2641
▁কবর	-11.2641
▁ট্যাক্সি	-11.2641
▁স্টাইল	-11.2641
▁brush	-11.2642
▁local	-11.2642
▁চুমো	-11.2642
▁টুপি	-11.2642
▁পুড়িয়ে	-11.2642
▁distract	-11.2643
▁friendship	-11.2643
KER	-11.2643
▁boring	-11.2644
▁shock	-11.2644
▁replace	-11.2645
▁Chand	-11.2645
▁direction	-11.2645
▁Chief	-11.2646
বজায়	-11.2646
▁আরেকবার	-11.2647
REI	-11.2647
▁east	-11.2647
▁হায়রে	-11.2647
▁শর্ত	-11.2647
▁শোধ	-11.2648
▁মিলিত	-11.2649
▁বন্ধুত্ব	-11.2651
নীতি	-11.2652
▁press	-11.2653
▁Tak	-11.2655
▁কার্ট	-11.2658
▁ঐখানে	-11.2661
▁boot	-11.2662
▁OH	-11.2663
▁bail	-11.2664
▁deck	-11.2665
▁Lif	-11.2667
bleh	-11.2668
▁exit	-11.2671
▁সামার	-11.2673
▁পকেট	-11.2678
▁দাদু	-11.27
▁Mark	-11.2705
ট্রো	-11.2717
▁plu	-11.2758
▁অ্যালেস	-11.2767
▁কাটিয়ে	-11.2773
▁নড়বে	-11.279
grade	-11.2846
পত্তি	-11.2896
ভেসে	-11.2903
mma	-11.2962
300	-11.2969
▁চাচা	-11.2994
▁লিখেছে	-11.302
icket	-11.305
▁১০০০	-11.3135
▁খুজছি	-11.3138
▁pee	-11.3165
পাখি	-11.3194
মন্ত্র	-11.3196
খুব	-11.3196
তোমরা	-11.3196
what	-11.3197
point	-11.3197
রূপ	-11.3198
মুক্ত	-11.32
মেক্স	-11.3207
▁এনেছ	-11.3223
▁physic	-11.3242
▁Park	-11.3297
▁আকর্ষণ	-11.3306
▁ক্ষুধা	-11.3306
▁রজার	-11.3306
▁ব্রিফকেস	-11.3307
▁Augsburg	-11.3307
▁Believe	-11.3307
▁Connors	-11.3307
▁Fergus	-11.3307
▁Fifty	-11.3307
▁Hamburg	-11.3307
▁Miraz	-11.3307
▁Nawab	-11.3307
▁Oscorp	-11.3307
▁Perfect	-11.3307
▁Second	-11.3307
▁Wainwright	-11.3307
▁abandoned	-11.3307
▁anomaly	-11.3307
▁assassin	-11.3307
▁bread	-11.3307
▁destiny	-11.3307
▁heavy	-11.3307
▁lizard	-11.3307
▁oxygen	-11.3307
▁rabbit	-11.3307
▁respond	-11.3307
▁scientist	-11.3307
▁struggle	-11.3307
▁thread	-11.3307
▁troops	-11.3307
▁tunnel	-11.3307
▁আইনজীবী	-11.3307
▁আঙটি	-11.3307
▁আফসোস	-11.3307
▁আশেপাশে	-11.3307
▁উত্তেজিত	-11.3307
▁উদ্ভিদ	-11.3307
▁উল্লেখ	-11.3307
▁কনফার্মড	-11.3307
▁ঘুরছে	-11.3307
▁চিড়িয়াখানা	-11.3307
▁নিখুঁত	-11.3307
▁নেটওয়ার্ক	-11.3307
▁পরিশোধ	-11.3307
▁প্রাকৃতিক	-11.3307
▁প্রেসিডেন্ট	-11.3307
▁প্লীজ	-11.3307
▁বয়ফ্রেন্ড	-11.3307
▁ভিরোনিকা	-11.3307
▁মার্সেডিজ	-11.3307
▁লেভেল	-11.3307
▁শতাব্দী	-11.3307
▁শিকাগো	-11.3307
▁acquaint	-11.3307
▁disappoint	-11.3307
▁earlier	-11.3307
▁electro	-11.3307
▁genetic	-11.3307
▁torture	-11.3307
▁trigger	-11.3307
▁অপারেট	-11.3307
▁ডার্ক	-11.3307
▁ভয়াবহ	-11.3307
▁রাইফেল	-11.3307
▁স্থাপন	-11.3307
▁Chewing	-11.3307
▁Repeat	-11.3307
▁involv	-11.3307
▁knowledge	-11.3307
▁খাদ্য	-11.3307
▁সমর্থ	-11.3307
▁Zone	-11.3307
▁যাত্রী	-11.3307
▁details	-11.3307
▁neuro	-11.3307
▁warrior	-11.3307
▁জবাব	-11.3307
▁রেঞ্জার	-11.3307
▁Gwen	-11.3307
▁Tonight	-11.3307
▁Talk	-11.3307
▁rub	-11.3307
▁জেসন	-11.3307
▁স্পষ্ট	-11.3307
▁Procet	-11.3307
▁চশমা	-11.3307
▁মিলারের	-11.3307
▁horn	-11.3307
▁দয়ালু	-11.3307
▁awake	-11.3307
▁pipe	-11.3307
▁গুয়েন	-11.3307
▁অতিথি	-11.3307
▁কর্মী	-11.3307
▁nail	-11.3307
▁হীরা	-11.3307
▁মহামান্য	-11.3307
▁court	-11.3307
▁closing	-11.3307
▁Such	-11.3307
▁বার্তা	-11.3308
▁invest	-11.3308
▁ময়লা	-11.3308
▁Graves	-11.3308
logical	-11.3308
▁cloud	-11.3308
▁Things	-11.3308
ique	-11.3308
▁দূরত্ব	-11.3309
OUN	-11.3309
▁ফিল্ড	-11.3309
▁chief	-11.3309
▁Macho	-11.3309
▁injur	-11.3309
▁project	-11.3309
▁existence	-11.3309
▁হাঁটু	-11.3309
▁কারখানা	-11.3309
▁guide	-11.3309
▁failure	-11.3309
চতুর	-11.3309
▁গোপনীয়	-11.331
▁darkness	-11.331
▁contain	-11.331
generation	-11.3311
▁কোরিয়া	-11.3311
▁sailor	-11.3311
▁গর্বিত	-11.3311
chasing	-11.3312
▁upset	-11.3312
▁বংশ	-11.3312
▁partner	-11.3312
▁mix	-11.3312
▁South	-11.3312
▁শোনাচ্ছে	-11.3313
▁অমর	-11.3313
▁ক্রিম	-11.3313
রআন	-11.3313
▁41	-11.3313
▁insist	-11.3315
▁বাদাম	-11.3315
▁sold	-11.3315
▁নেশা	-11.3316
▁ছুটে	-11.3316
▁US	-11.3317
▁Thro	-11.3318
▁ভঙ্গ	-11.3319
▁গড়ে	-11.3319
▁Alan	-11.332
▁coast	-11.332
ভিত্তি	-11.332
▁ইয়ো	-11.3324
▁চেনে	-11.3324
▁race	-11.3326
▁বার্ট	-11.333
▁tie	-11.3332
▁Marine	-11.3337
▁নায়ক	-11.3339
▁cast	-11.334
▁80	-11.3347
বস্থা	-11.3347
ব্লাড	-11.3351
cular	-11.3418
▁ভাঙ	-11.3419
▁ডাই	-11.3429
▁পোলা	-11.3455
▁পোষাক	-11.3502
প্রিয়	-11.3571
রেঞ্জ	-11.3674
▁ব্লা	-11.3701
▁ভাঙ্গ	-11.3775
▁মুছ	-11.3848
অনন্ত	-11.3909
Stay	-11.391
অবশ্যই	-11.391
That	-11.3911
But	-11.3911
▁স্বাধীন	-11.3921
ভিক্ষা	-11.3922
like	-11.3925
▁transmit	-11.3966
▁Secret	-11.402
league	-11.4021
ব্রহ্মাণ্ড	-11.4021
▁judge	-11.4021
▁specific	-11.4021
▁এডমন্ডস	-11.4021
▁কাস্পিয়ান	-11.4021
▁ক্যারালাইন	-11.4021
▁গার্ল	-11.4021
▁ঘুরতে	-11.4021
▁জ্যাফেথ	-11.4021
▁ঝুকি	-11.4021
▁পরিশ্রম	-11.4021
▁ব্লু	-11.4021
▁মিউজিক	-11.4021
▁যুবরাজ	-11.4021
▁সরবরাহ	-11.4021
▁সুড়ঙ্গ	-11.4021
▁01:	-11.4021
▁Barnes	-11.4021
▁Elysium	-11.4021
▁FAIRY	-11.4021
▁FRANK	-11.4021
▁Francis	-11.4021
▁Greenwich	-11.4021
▁Imagine	-11.4021
▁Macintosh	-11.4021
▁Martini	-11.4021
▁Niobe	-11.4021
▁Olympus	-11.4021
▁President	-11.4021
▁Romilly	-11.4021
▁Security	-11.4021
▁Serizawa	-11.4021
▁Stonebanks	-11.4021
▁Sylvia	-11.4021
▁beauty	-11.4021
▁bought	-11.4021
▁complain	-11.4021
▁coordinates	-11.4021
▁equation	-11.4021
▁evacuat	-11.4021
▁explosion	-11.4021
▁favour	-11.4021
▁folks	-11.4021
▁intelligence	-11.4021
▁major	-11.4021
▁nonsense	-11.4021
▁potential	-11.4021
▁practice	-11.4021
▁rifle	-11.4021
▁shadow	-11.4021
▁smoking	-11.4021
▁surrender	-11.4021
▁অলৌকিক	-11.4021
▁কনর্স	-11.4021
▁কর্তব্য	-11.4021
▁ঝগড়া	-11.4021
▁ডিভাইস	-11.4021
▁নেব্যুক্যানেজার	-11.4021
▁পরিস্কার	-11.4021
▁প্রতিযোগিতা	-11.4021
▁প্রাচীন	-11.4021
▁ফ্যামিলি	-11.4021
▁বিকিরণ	-11.4021
▁বিখ্যাত	-11.4021
▁বেকুব	-11.4021
▁ব্যবহৃত	-11.4021
▁ভদ্রমহোদয়	-11.4021
▁মিলিটারি	-11.4021
▁যীশু	-11.4021
▁স্যলভিয়া	-11.4021
▁হামাজাকি	-11.4021
▁Gloop	-11.4021
▁Kinky	-11.4021
▁Merlin	-11.4021
▁Switch	-11.4021
▁billion	-11.4021
▁herself	-11.4021
▁honour	-11.4021
▁pulse	-11.4021
▁witness	-11.4021
▁ফাজলাম	-11.4021
▁স্মার্ট	-11.4021
▁প্রতিরক্ষা	-11.4021
▁Woman	-11.4021
▁mankind	-11.4021
▁ধাওয়া	-11.4021
▁Grandma	-11.4021
▁balance	-11.4021
▁Indeed	-11.4021
▁flew	-11.4021
▁proceed	-11.4021
▁নাইওবি	-11.4021
▁tiny	-11.4021
▁Steve	-11.4021
▁Alice	-11.4021
▁Hope	-11.4021
▁মাইডাস	-11.4021
▁মিরাজ	-11.4021
▁Midas	-11.4021
▁giant	-11.4021
▁text	-11.4021
▁প্রসেট	-11.4021
▁wild	-11.4021
▁গ্রেভস	-11.4021
▁নিচু	-11.4021
▁ব্রেক	-11.4021
▁ভাইজান	-11.4021
▁Besides	-11.4021
▁ফিলিপ	-11.4021
▁দুর্ভাগ্য	-11.4021
ACU	-11.4021
▁split	-11.4021
▁প্রযুক্তি	-11.4021
▁মেডিক	-11.4021
▁Mummy	-11.4021
▁firing	-11.4021
দায়ক	-11.4021
NGU	-11.4021
▁উনাকে	-11.4021
▁dozen	-11.4021
▁chain	-11.4021
Engine	-11.4021
▁Sister	-11.4022
▁অতিক্রম	-11.4022
▁ভুগ	-11.4022
▁পদক্ষেপ	-11.4022
▁classified	-11.4022
▁float	-11.4022
▁ভয়েস	-11.4022
▁পর্বত	-11.4022
▁বর্ডার	-11.4022
▁Dark	-11.4022
▁ignor	-11.4022
▁admir	-11.4022
▁Leon	-11.4022
▁বোলো	-11.4022
▁মন্দিরে	-11.4022
▁বায়ু	-11.4023
▁Drink	-11.4023
▁chase	-11.4023
▁alter	-11.4023
▁মূল্যবান	-11.4023
▁বাচিয়ে	-11.4023
▁বাংলা	-11.4023
▁ভুত	-11.4023
▁grew	-11.4024
▁dropped	-11.4024
▁Para	-11.4024
▁scale	-11.4024
▁crew	-11.4025
▁tough	-11.4025
▁ব্যাটারি	-11.4025
▁দিয়ো	-11.4025
▁tick	-11.4025
▁castle	-11.4026
▁কার্টার	-11.4026
▁ছুড়ে	-11.4027
▁wise	-11.4027
▁belt	-11.4028
▁shake	-11.4028
▁strip	-11.4028
▁ভালবাসত	-11.4028
▁Plus	-11.4028
▁hack	-11.4029
▁মাঠে	-11.4029
▁বিদেশ	-11.403
▁cake	-11.403
▁জানাচ্ছি	-11.4032
▁restore	-11.4034
▁পরিমান	-11.4034
▁lack	-11.4035
▁zoo	-11.4036
▁জায়গামত	-11.4036
berry	-11.4036
▁emotional	-11.4052
শুদ্ধ	-11.4054
▁ফেস	-11.4056
▁basic	-11.4084
UN	-11.4093
▁23	-11.4194
সংবাদ	-11.4302
wag	-11.4304
road	-11.4358
শিশুদের	-11.4545
rink	-11.457
▁shoe	-11.4619
মূল	-11.4669
পূর্ব	-11.4677
স্বীকার	-11.4678
special	-11.4679
ঐ	-11.468
তখন	-11.468
just	-11.4697
▁threat	-11.479
parent	-11.479
পসেইডন	-11.479
WASABI	-11.479
magnetic	-11.479
▁Anybody	-11.479
▁April	-11.479
▁Climb	-11.479
▁Eugene	-11.479
▁Europe	-11.479
▁Excellent	-11.479
▁Except	-11.479
▁Eywa	-11.479
▁Janie	-11.479
▁Japheth	-11.479
▁Kremlin	-11.479
▁Merlinean	-11.479
▁Nebuchadnezzar	-11.479
▁Prepare	-11.479
▁Service	-11.479
▁Target	-11.479
▁Temple	-11.479
▁Unbelievable	-11.479
▁White	-11.479
▁announce	-11.479
▁appointment	-11.479
▁authority	-11.479
▁bleeding	-11.479
▁centuries	-11.479
▁challenge	-11.479
▁chamber	-11.479
▁cigarette	-11.479
▁delicious	-11.479
▁illegal	-11.479
▁microbots	-11.479
▁monkey	-11.479
▁ordinary	-11.479
▁particular	-11.479
▁practical	-11.479
▁ridiculous	-11.479
▁satyr	-11.479
▁servant	-11.479
▁speech	-11.479
▁suicide	-11.479
▁অভিশাপ	-11.479
▁অ্যাভাটার	-11.479
▁আত্মহত্যা	-11.479
▁এপ্রিল	-11.479
▁এমব্রোজ	-11.479
▁ওয়াশিংটন	-11.479
▁কণ্ঠ	-11.479
▁কৌতুক	-11.479
▁ঘুরা	-11.479
▁ডার্লিং	-11.479
▁ড্যাংলার	-11.479
▁ত্রুটি	-11.479
▁দ্বিধা	-11.479
▁ফ্ল্যাশ	-11.479
▁বাবুর্চী	-11.479
▁বিবেচনা	-11.479
▁ব্যাকআপ	-11.479
▁ব্ল্যাক	-11.479
▁ভ্রমন	-11.479
▁মিথ্যুক	-11.479
▁রাজপুত্র	-11.479
▁সন্দেহভাজন	-11.479
▁সম্পত্তি	-11.479
▁সৌন্দর্য	-11.479
▁স্টোনব্যাংকস	-11.479
▁স্যান্ডি	-11.479
▁হসপিটাল	-11.479
▁হিংস্র	-11.479
ট্রান্সমিটার	-11.479
▁Clank	-11.479
▁Japanese	-11.479
▁Kruger	-11.479
▁limit	-11.479
▁mechanic	-11.479
▁quarter	-11.479
▁recommend	-11.479
▁writing	-11.479
▁অজ্ঞাত	-11.479
▁খুলুন	-11.479
▁ডিগ্রী	-11.479
▁নিয়োগ	-11.479
▁প্রতিবেশী	-11.479
▁প্রতিরোধ	-11.479
▁ফর্ড	-11.479
▁মূর্খ	-11.479
▁শাহিদা	-11.479
▁Darcy	-11.479
▁asleep	-11.479
▁biggest	-11.479
▁junk	-11.479
▁ম্যাসেজ	-11.479
▁Zach	-11.479
▁ইউরোপ	-11.479
▁bodies	-11.479
▁cousin	-11.479
▁silly	-11.479
▁view	-11.479
▁জাতীয়	-11.479
▁থেমে	-11.479
▁measure	-11.479
▁pretend	-11.479
▁রাজমাতা	-11.479
▁lungs	-11.479
▁pair	-11.479
▁প্লেট	-11.479
▁বেগম	-11.479
▁লিডার	-11.479
▁detach	-11.479
▁kidnap	-11.479
▁হাঁটতে	-11.479
▁color	-11.479
▁recall	-11.479
▁বেসবল	-11.479
▁শীত	-11.479
▁Push	-11.479
▁scene	-11.479
▁Confirmed	-11.479
▁tongue	-11.479
▁কোমল	-11.479
▁অসাম	-11.479
▁সেনানী	-11.4791
▁Shoot	-11.4791
▁বানাবো	-11.4791
▁mood	-11.4791
▁কিংকি	-11.4791
▁robb	-11.4791
▁hatch	-11.4791
▁Lower	-11.4791
▁sharp	-11.4791
▁subject	-11.4791
▁ব্যাক্তিগত	-11.4791
▁hostile	-11.4791
▁আকর্ষণীয়	-11.4791
▁Zing	-11.4791
▁গ্লাস	-11.4791
▁বিশেষজ্ঞ	-11.4791
▁slipper	-11.4792
▁wipe	-11.4792
▁গোসল	-11.4792
izing	-11.4792
▁route	-11.4792
▁ওয়াইন	-11.4792
ড্যাশ	-11.4792
▁পরিমাণ	-11.4792
▁তালিকা	-11.4792
▁House	-11.4792
▁containment	-11.4793
▁পুলিস	-11.4793
▁Anyone	-11.4793
▁Sandy	-11.4793
▁বানান	-11.4793
▁লিওন	-11.4793
▁Faster	-11.4793
▁vital	-11.4793
▁ম্যাডে	-11.4794
▁property	-11.4794
▁ড্রাগান	-11.4794
▁স্থানীয়	-11.4794
▁blast	-11.4794
▁rough	-11.4795
▁জিতেছি	-11.4795
▁weekend	-11.4796
▁ফাঁক	-11.4799
▁খুঁজব	-11.4799
gro	-11.4927
gotten	-11.4967
ember	-11.5051
▁ঘুমানো	-11.5137
্ষণ	-11.5299
গ্রহণ	-11.5513
অনেক	-11.5513
▁রাশিয়া	-11.5603
▁স্বাগত	-11.5615
▁আগ্রহ	-11.5616
▁Prince	-11.5621
▁bru	-11.5622
ভল্লালদেব	-11.5624
▁তত্ত্ব	-11.5624
▁স্বেচ্ছা	-11.5624
▁quant	-11.5624
▁stepmother	-11.5624
▁ইকারাস	-11.5624
▁কৃষ্ণগহবর	-11.5624
▁খ্রীষ্ট	-11.5624
WHISPERING	-11.5624
espite	-11.5624
flavor	-11.5624
নৈতিক	-11.5624
▁Ambrose	-11.5624
▁Annabel	-11.5624
▁Attention	-11.5624
▁Bajarangi	-11.5624
▁Bedford	-11.5624
▁Benstrom	-11.5624
▁Certainly	-11.5624
▁Correct	-11.5624
▁Delhi	-11.5624
▁Deluca	-11.5624
▁Enjoy	-11.5624
▁Freddie	-11.5624
▁Galgo	-11.5624
▁Icarus	-11.5624
▁Japan	-11.5624
▁Joseph	-11.5624
▁Lancaster	-11.5624
▁League	-11.5624
▁MacGuffin	-11.5624
▁Muriel	-11.5624
▁Shahida	-11.5624
▁Soyuz	-11.5624
▁Speak	-11.5624
▁Thunk	-11.5624
▁WRB	-11.5624
▁Washington	-11.5624
▁Zao	-11.5624
▁algorithm	-11.5624
▁amount	-11.5624
▁ancient	-11.5624
▁apprentice	-11.5624
▁bride	-11.5624
▁bullshit	-11.5624
▁capsule	-11.5624
▁champagne	-11.5624
▁cheese	-11.5624
▁companion	-11.5624
▁convince	-11.5624
▁councillor	-11.5624
▁deposit	-11.5624
▁disposal	-11.5624
▁equipment	-11.5624
▁exciting	-11.5624
▁girlfriend	-11.5624
▁healthcare	-11.5624
▁helicopter	-11.5624
▁increase	-11.5624
▁instinct	-11.5624
▁insurance	-11.5624
▁intention	-11.5624
▁mastermind	-11.5624
▁neighbor	-11.5624
▁network	-11.5624
▁observ	-11.5624
▁plastic	-11.5624
▁possibly	-11.5624
▁progress	-11.5624
▁reflect	-11.5624
▁remote	-11.5624
▁represent	-11.5624
▁research	-11.5624
▁response	-11.5624
▁revenge	-11.5624
▁sample	-11.5624
▁scientific	-11.5624
▁signature	-11.5624
▁solution	-11.5624
▁squirrel	-11.5624
▁stomach	-11.5624
▁summer	-11.5624
▁volunteer	-11.5624
▁অদ্বিতীয়	-11.5624
▁অবিনশ্বর	-11.5624
▁আন্দাজ	-11.5624
▁আশীর্বাদ	-11.5624
▁উচ্চারণ	-11.5624
▁উদযাপন	-11.5624
▁কোবাল্ট	-11.5624
▁ক্রোধ	-11.5624
▁গাজ্জা	-11.5624
▁গিরগিটি	-11.5624
▁গুনথের	-11.5624
▁গ্রিনউইচ	-11.5624
▁জুনিয়র	-11.5624
▁ঝোল	-11.5624
▁থান্ক	-11.5624
▁দেবদূত	-11.5624
▁ন্যায্য	-11.5624
▁প্যাটার্ন	-11.5624
▁প্রতিক্রিয়া	-11.5624
▁প্রতিবেদন	-11.5624
▁প্রতিষ্ঠান	-11.5624
▁প্লাস্টিক	-11.5624
▁ফিজিক্স	-11.5624
▁বেন্সট্রম	-11.5624
▁বেশিরভাগ	-11.5624
▁বৈজ্ঞানিক	-11.5624
▁মেইনল্যান্ডে	-11.5624
▁মেরামত	-11.5624
▁মোকাবেলা	-11.5624
▁রান্নাঘরে	-11.5624
▁ল্যাঙ্কাস্টার	-11.5624
▁শুয়োর	-11.5624
▁সচেতন	-11.5624
▁সার্জেন্ট	-11.5624
▁সেন্টিনেল	-11.5624
▁সোনামণি	-11.5624
▁স্রষ্টা	-11.5624
▁হারামজাদা	-11.5624
▁Monday	-11.5624
▁fetch	-11.5624
▁fortune	-11.5624
▁fulfill	-11.5624
▁result	-11.5624
▁অসুখ	-11.5624
▁পরাজিত	-11.5624
▁যুবক	-11.5624
▁রমিলি	-11.5624
ক্ষিপ্ত	-11.5624
▁except	-11.5624
▁আব্বু	-11.5624
▁তদন্ত	-11.5624
▁Koran	-11.5624
▁ইউজিন	-11.5624
▁উচু	-11.5624
▁স্বাস্থ্যসেবা	-11.5624
▁Barry	-11.5624
▁crowd	-11.5624
▁serum	-11.5624
▁কর্নার	-11.5624
▁সাক্ষী	-11.5624
▁employee	-11.5624
▁literal	-11.5624
▁rose	-11.5624
▁চেষ্ঠা	-11.5624
▁expert	-11.5624
▁capable	-11.5624
▁recent	-11.5624
▁মিটিং	-11.5624
▁shelter	-11.5624
▁Boss	-11.5624
▁ছাত্র	-11.5624
▁ভদ্রমহিলা	-11.5624
▁ছেলেমেয়ে	-11.5624
▁হারামি	-11.5624
▁ডাবল	-11.5624
▁brand	-11.5624
▁stairs	-11.5624
▁শেয়ার	-11.5624
▁যাচাই	-11.5624
▁structure	-11.5624
▁bunch	-11.5624
▁তারাতারি	-11.5624
▁নওয়াব	-11.5624
▁Poor	-11.5624
বশত	-11.5624
▁বাতিল	-11.5624
▁ট্যাংক	-11.5624
▁ট্রেইন	-11.5624
শ্রেষ্ঠ	-11.5624
▁tech	-11.5624
▁রাজনীতি	-11.5624
▁Kind	-11.5624
স্যাটায়ার	-11.5624
▁জাদুমন্ত্র	-11.5624
▁Lucky	-11.5624
▁তারমানে	-11.5624
▁ugly	-11.5624
▁style	-11.5624
▁warning	-11.5625
▁হাউস	-11.5625
▁ভারী	-11.5625
▁ভবন	-11.5625
▁Prett	-11.5625
▁puss	-11.5625
▁লাথি	-11.5625
▁সাগর	-11.5625
▁উপদেশ	-11.5625
▁Nope	-11.5625
▁airlock	-11.5626
▁Hunt	-11.5626
▁intend	-11.5626
▁শার্ল	-11.5627
▁shape	-11.5628
▁Tree	-11.5629
▁ভোগ	-11.563
▁গরু	-11.563
chuckl	-11.5631
▁nerd	-11.5631
াউন্ড	-11.5652
নির্মাণ	-11.5682
▁অভাব	-11.5685
▁Luc	-11.5705
EAKING	-11.5855
▁দাঁড়	-11.588
সাধ্য	-11.5952
▁বোট	-11.6072
ব্দ	-11.6151
মম্	-11.6169
▁পোষা	-11.6269
▁উন্নত	-11.6408
বুদ্ধি	-11.6421
looking	-11.6422
বছর	-11.6423
▁quit	-11.6521
assic	-11.6521
▁exact	-11.6525
▁sail	-11.6527
▁quest	-11.653
▁August	-11.653
▁স্টিভ	-11.6531
শৃঙ্খল	-11.6533
▁brief	-11.6533
▁explosive	-11.6533
▁অপহরণ	-11.6533
▁কক্ষপথ	-11.6533
▁ড্রিঙ্ক	-11.6533
▁স্বার্থ	-11.6533
BOTH	-11.6533
LAUGHS	-11.6533
তৃষ্ণা	-11.6533
াধিকার	-11.6533
▁Although	-11.6533
▁Australia	-11.6533
▁BELL	-11.6533
▁British	-11.6533
▁Dengler	-11.6533
▁Dragan	-11.6533
▁Eliza	-11.6533
▁Endurance	-11.6533
▁Gargantua	-11.6533
▁Gazza	-11.6533
▁Hospital	-11.6533
▁Kalakeya	-11.6533
▁Karlenko	-11.6533
▁Katappa	-11.6533
▁Phisit	-11.6533
▁Richter	-11.6533
▁Sidney	-11.6533
▁Strike	-11.6533
▁Timekeeper	-11.6533
▁Toruk	-11.6533
▁Victor	-11.6533
▁advantage	-11.6533
▁avatar	-11.6533
▁avoid	-11.6533
▁baseball	-11.6533
▁berries	-11.6533
▁confused	-11.6533
▁conversation	-11.6533
▁depart	-11.6533
▁desperate	-11.6533
▁destruction	-11.6533
▁distress	-11.6533
▁divorce	-11.6533
▁easier	-11.6533
▁effort	-11.6533
▁extraction	-11.6533
▁frighten	-11.6533
▁gorgeous	-11.6533
▁grateful	-11.6533
▁happiness	-11.6533
▁horizon	-11.6533
▁jealous	-11.6533
▁memories	-11.6533
▁plague	-11.6533
▁policy	-11.6533
▁pumpkin	-11.6533
▁relative	-11.6533
▁resources	-11.6533
▁sacred	-11.6533
▁sequence	-11.6533
▁smash	-11.6533
▁supplie	-11.6533
▁technology	-11.6533
▁temperature	-11.6533
▁twice	-11.6533
▁uppercut	-11.6533
▁vegetarian	-11.6533
▁victim	-11.6533
▁wormhole	-11.6533
▁অধিকাংশ	-11.6533
▁অধীনে	-11.6533
▁অপচয়	-11.6533
▁আপারকাট	-11.6533
▁আবেদন	-11.6533
▁ইচ্ছুক	-11.6533
▁ইনসাইট	-11.6533
▁উইংস	-11.6533
▁উন্মাদ	-11.6533
▁উপত্যকা	-11.6533
▁উপস্থাপন	-11.6533
▁একসঙ্গে	-11.6533
▁ওয়ার্মহোল	-11.6533
▁কথাবার্তা	-11.6533
▁কাটাপ্পা	-11.6533
▁ক্রেমলিন	-11.6533
▁ক্লার্ক	-11.6533
▁খরগোশ	-11.6533
▁গারগ্যানচুয়া	-11.6533
▁গৃহ	-11.6533
▁গ্যারান্টি	-11.6533
▁ঘটতে	-11.6533
▁চুইংগাম	-11.6533
▁টাইমকিপার	-11.6533
▁টোরুক	-11.6533
▁ডায়মন্ড	-11.6533
▁দম্পতি	-11.6533
▁দর্শক	-11.6533
▁দুশমন	-11.6533
▁দোহাই	-11.6533
▁ধ্বংসাবশেষ	-11.6533
▁নিষিদ্ধ	-11.6533
▁নিষ্ঠুর	-11.6533
▁পজিশন	-11.6533
▁প্রজেক্ট	-11.6533
▁ফিউরিয়োসা	-11.6533
▁বিস্তারিত	-11.6533
▁বোতল	-11.6533
▁বোধহয়	-11.6533
▁ব্রিটিশ	-11.6533
▁রিখটার	-11.6533
▁রোজেলি	-11.6533
▁শিরোনাম	-11.6533
▁সামাজিক	-11.6533
▁সারপ্রাইজ	-11.6533
▁সার্গেই	-11.6533
▁সার্ভার	-11.6533
▁সিগনাল	-11.6533
▁সুইজারল্যান্ড	-11.6533
▁হিন্দু	-11.6533
কুঁড়েঘর	-11.6533
▁Carlisle	-11.6533
▁chaos	-11.6533
▁fraud	-11.6533
▁mortal	-11.6533
▁naked	-11.6533
▁squash	-11.6533
▁উধাও	-11.6533
▁খাতিরে	-11.6533
▁ফিসিট	-11.6533
▁ভালবাসবে	-11.6533
▁সোমবার	-11.6533
▁স্বয়ং	-11.6533
▁Blue	-11.6533
▁Cobalt	-11.6533
▁Tyson	-11.6533
▁Wrong	-11.6533
▁contamina	-11.6533
▁multi	-11.6533
▁print	-11.6533
▁sentinel	-11.6533
▁steak	-11.6533
▁জ্বী	-11.6533
▁বক্সার	-11.6533
▁যাহোক	-11.6533
▁সায়েন্স	-11.6533
▁Glass	-11.6533
▁muscle	-11.6533
▁কুমড়া	-11.6533
▁পর্যায়ে	-11.6533
▁যিশু	-11.6533
▁হাইড্র	-11.6533
▁CIA	-11.6533
▁prick	-11.6533
▁quack	-11.6533
▁মোর্স	-11.6533
▁সিংহ	-11.6533
▁Fisher	-11.6533
▁Large	-11.6533
▁barrier	-11.6533
▁depth	-11.6533
▁loving	-11.6533
▁গতরাতে	-11.6533
▁চাবুক	-11.6533
▁ততক্ষন	-11.6533
▁Change	-11.6533
▁Horse	-11.6533
▁United	-11.6533
▁delay	-11.6533
▁শর্ট	-11.6533
▁Patel	-11.6533
▁এটুকুই	-11.6533
▁দেবসেনা	-11.6533
▁Honor	-11.6533
▁Sully	-11.6533
▁ব্যবসায়ী	-11.6533
▁মহাকাশ	-11.6533
▁kilo	-11.6533
▁GENE	-11.6533
▁ঢাক	-11.6533
▁ত্রিশ	-11.6533
▁পাহারা	-11.6533
▁root	-11.6533
changing	-11.6533
▁technical	-11.6533
▁steer	-11.6533
▁মারামারি	-11.6533
স্মিথ	-11.6533
▁প্রাইস	-11.6533
▁leak	-11.6533
▁Burn	-11.6533
▁মাদক	-11.6533
▁Born	-11.6533
▁wives	-11.6533
▁began	-11.6533
SAT	-11.6533
▁চেইন	-11.6533
▁wore	-11.6534
▁গুজব	-11.6534
▁সহচর	-11.6534
▁debt	-11.6534
▁indeed	-11.6534
▁গণনা	-11.6534
▁গোলাপ	-11.6534
▁কোরনা	-11.6534
▁desk	-11.6534
▁সেবায়	-11.6534
▁Halt	-11.6534
▁ধুলা	-11.6534
▁ইন্টার্ন	-11.6534
▁মুভি	-11.6535
▁score	-11.654
▁বহন	-11.654
▁শিখেছি	-11.6542
▁আড়াল	-11.6543
▁Till	-11.6544
▁awful	-11.6561
▁dro	-11.6565
▁novel	-11.6583
▁arch	-11.6593
▁infinite	-11.6594
বয়স্ক	-11.6728
clip	-11.6765
authorized	-11.6855
pea	-11.6933
কর্তা	-11.6993
quietly	-11.7094
▁whip	-11.7186
ধংস	-11.7187
সাধারণ	-11.7416
যাত্রা	-11.7421
পরিচিত	-11.7421
যুদ্ধ	-11.7421
সম্মান	-11.7421
সত্যি	-11.7422
Where	-11.7422
শুধু	-11.7422
#	-11.7422
চোখ	-11.7426
ফরাস	-11.747
গ্যে	-11.7504
▁টিংক	-11.7529
▁প্রশিক্ষ	-11.753
িহ্ন	-11.7532
addock	-11.7533
ccording	-11.7533
আফ্রিকা	-11.7533
মুসলিম	-11.7533
যান্ত্রিক	-11.7533
সুস্বাদু	-11.7533
▁Africa	-11.7533
▁Agnes	-11.7533
▁Awesome	-11.7533
▁Beauregarde	-11.7533
▁Bhallaladeva	-11.7533
▁Charles	-11.7533
▁Cinderella	-11.7533
▁Directive	-11.7533
▁Furiosa	-11.7533
▁Hamilton	-11.7533
▁London	-11.7533
▁Mashido	-11.7533
▁Mistress	-11.7533
▁Officer	-11.7533
▁Pandora	-11.7533
▁Plymouth	-11.7533
▁Rasika	-11.7533
▁SWAT	-11.7533
▁Schenectady	-11.7533
▁Through	-11.7533
▁advance	-11.7533
▁afford	-11.7533
▁alpha	-11.7533
▁altitude	-11.7533
▁apparently	-11.7533
▁behavior	-11.7533
▁boyfriend	-11.7533
▁bucket	-11.7533
▁capacity	-11.7533
▁chopper	-11.7533
▁competition	-11.7533
▁constant	-11.7533
▁determine	-11.7533
▁disagree	-11.7533
▁eternal	-11.7533
▁excellent	-11.7533
▁frequency	-11.7533
▁hidden	-11.7533
▁incident	-11.7533
▁instruction	-11.7533
▁interrupt	-11.7533
▁nephew	-11.7533
▁occur	-11.7533
▁pocket	-11.7533
▁precious	-11.7533
▁private	-11.7533
▁professional	-11.7533
▁relationship	-11.7533
▁retrieve	-11.7533
▁schedule	-11.7533
▁scratch	-11.7533
▁timing	-11.7533
▁trespass	-11.7533
▁অন্নাবেল	-11.7533
▁অপ্রত্যাশিত	-11.7533
▁আমন্ত্রণ	-11.7533
▁ইকবাল	-11.7533
▁এখুনি	-11.7533
▁কৃষ্ণ	-11.7533
▁গ্র্যান্ড	-11.7533
▁চাকুরি	-11.7533
▁চ্যালেঞ্জ	-11.7533
▁ছদ্মবেশ	-11.7533
▁জরিমানা	-11.7533
▁জীবাশ্ম	-11.7533
▁জেসপার	-11.7533
▁ডিজাইন	-11.7533
▁তুমাদের	-11.7533
▁থিওরি	-11.7533
▁থোমাস	-11.7533
▁নর্থাপ	-11.7533
▁পারফেক্ট	-11.7533
▁পার্টনার	-11.7533
▁প্যান্ডোরা	-11.7533
▁প্রতিশ্রুত	-11.7533
▁প্লাগ	-11.7533
▁ফাটাফাটি	-11.7533
▁বিপজ্জনক	-11.7533
▁বিষাক্ত	-11.7533
▁ভাগাভাগি	-11.7533
▁ভাল্লুক	-11.7533
▁মহোদয়	-11.7533
▁মার্লেনিয়ান	-11.7533
▁মাশিডো	-11.7533
▁মিথ্যাবাদী	-11.7533
▁শেরিফ	-11.7533
▁সন্ধান	-11.7533
▁সমীকরণ	-11.7533
▁সম্বন্ধে	-11.7533
▁সাংঘাতিক	-11.7533
▁সিন্ডারেলা	-11.7533
▁স্থানান্তর	-11.7533
▁স্যান্ডউইচ	-11.7533
▁হাড্ডি	-11.7533
স্থায়ী	-11.7533
▁APU	-11.7533
▁battery	-11.7533
▁essence	-11.7533
▁experiment	-11.7533
▁famous	-11.7533
▁hammer	-11.7533
▁odds	-11.7533
▁sunrise	-11.7533
▁উপাদান	-11.7533
▁উষ্ণ	-11.7533
▁একাউন্ট	-11.7533
▁এগনেস	-11.7533
▁গন্তব্য	-11.7533
▁গালগো	-11.7533
▁শেকড়	-11.7533
▁সয়োজ	-11.7533
কাইয়ু	-11.7533
▁Debra	-11.7533
▁Search	-11.7533
▁Smith	-11.7533
▁advise	-11.7533
▁belief	-11.7533
▁cliff	-11.7533
▁gravy	-11.7533
▁আবর্জনা	-11.7533
▁কোত্থ	-11.7533
▁প্রিয়তমা	-11.7533
▁বিভ্রান্ত	-11.7533
▁রবিবারে	-11.7533
▁activate	-11.7533
▁colour	-11.7533
▁initiate	-11.7533
▁regard	-11.7533
▁আয়োজন	-11.7533
▁ইন্ডিয়া	-11.7533
▁জিনিয়াস	-11.7533
▁ফ্রস্ট	-11.7533
▁রক্তপাত	-11.7533
▁রীতি	-11.7533
▁সিডনি	-11.7533
-41	-11.7533
▁Catch	-11.7533
▁France	-11.7533
▁Iqbal	-11.7533
▁thirst	-11.7533
▁সর্বনাশ	-11.7533
▁stink	-11.7533
▁Bennet	-11.7533
▁Nico	-11.7533
▁override	-11.7533
▁এলিজা	-11.7533
▁খুঁজো	-11.7533
▁ফিশার	-11.7533
▁বাড়ছে	-11.7533
▁ব্র্যান্ডিট	-11.7533
▁পুনঃ	-11.7533
▁Martha	-11.7533
▁সিজার	-11.7533
▁detonate	-11.7533
▁Royal	-11.7533
▁Tech	-11.7533
▁স্টাফ	-11.7533
▁মার্গো	-11.7533
▁রাসিকা	-11.7533
▁Syne	-11.7533
▁টাইসন	-11.7533
▁লাইগা	-11.7533
▁relay	-11.7533
▁ডয়েল	-11.7533
▁sweat	-11.7533
▁demand	-11.7533
▁মামলা	-11.7533
▁Doyle	-11.7533
▁এয়ারলক	-11.7533
▁Green	-11.7533
▁ফাঁদ	-11.7533
▁এতিম	-11.7533
▁লন্ডন	-11.7533
imum	-11.7533
▁Insight	-11.7533
▁inspect	-11.7534
▁Frey	-11.7534
▁আজরাতে	-11.7534
▁জ্যাম	-11.7534
▁তাকাবে	-11.7534
▁ওয়েইস	-11.7534
▁shore	-11.7534
▁committ	-11.7534
▁Magic	-11.7535
▁পনির	-11.7535
▁Protect	-11.7536
▁প্যান্টে	-11.7537
▁Sara	-11.7537
▁ভাংত	-11.7542
elimina	-11.7551
▁wire	-11.756
ফোটা	-11.7567
xecuti	-11.7567
ক্ষমতা	-11.8214
Eric	-11.8531
সাইকেল	-11.8532
সারাজীবন	-11.8532
উচ্চ	-11.8532
পৃথিবী	-11.8533
মধ্যে	-11.8533
আপনাকে	-11.8533
finitely	-11.8568
▁অ্যামেরিকা	-11.8599
▁শীঘ্র	-11.8613
বর্তী	-11.8641
▁employ	-11.8644
▁ইন্টেল	-11.8644
▁স্নায়ু	-11.8644
▁Jacob	-11.8644
▁jewel	-11.8644
▁sandwich	-11.8644
▁sniff	-11.8644
▁অসংগতি	-11.8644
▁অ্যাম্বুশ	-11.8644
▁আদর্শ	-11.8644
▁ইন্ডোমিনাস	-11.8644
▁উত্তেজনা	-11.8644
▁কারলেনকো	-11.8644
▁গ্রীষ্ম	-11.8644
▁চরিত্র	-11.8644
▁তুষার	-11.8644
▁মডিউল	-11.8644
▁শরীফ	-11.8644
▁ষাড়	-11.8644
▁হ্যামবুর্গ	-11.8644
▁হ্যালিক্যারি	-11.8644
ECH	-11.8644
LAUGHING	-11.8644
SHOUTING	-11.8644
automatic	-11.8644
instrument	-11.8644
nflict	-11.8644
ক্লিমেন্স	-11.8644
লব্ধ	-11.8644
লেস্ত্রাড	-11.8644
▁Ambush	-11.8644
▁Answer	-11.8644
▁Approach	-11.8644
▁Axiom	-11.8644
▁Bravo	-11.8644
▁Clemens	-11.8644
▁Convergence	-11.8644
▁Croods	-11.8644
▁Dragon	-11.8644
▁Florid	-11.8644
▁Grandfather	-11.8644
▁Immortan	-11.8644
▁International	-11.8644
▁Leader	-11.8644
▁Lestrade	-11.8644
▁Muslim	-11.8644
▁Piscine	-11.8644
▁SCHENECTADY	-11.8644
▁Sabbath	-11.8644
▁Saturn	-11.8644
▁Sergeant	-11.8644
▁Splendid	-11.8644
▁Swami	-11.8644
▁Switzerland	-11.8644
▁Twelve	-11.8644
▁Vampire	-11.8644
▁Yankee	-11.8644
▁Zola	-11.8644
▁activity	-11.8644
▁ambulance	-11.8644
▁ammunition	-11.8644
▁breeze	-11.8644
▁brilliant	-11.8644
▁broadcast	-11.8644
▁character	-11.8644
▁civilians	-11.8644
▁coincidence	-11.8644
▁combination	-11.8644
▁compromise	-11.8644
▁confess	-11.8644
▁debris	-11.8644
▁describe	-11.8644
▁disgusting	-11.8644
▁eagle	-11.8644
▁eldest	-11.8644
▁embarrass	-11.8644
▁establish	-11.8644
▁extreme	-11.8644
▁facility	-11.8644
▁festival	-11.8644
▁garbage	-11.8644
▁investigation	-11.8644
▁language	-11.8644
▁magazine	-11.8644
▁midnight	-11.8644
▁passenger	-11.8644
▁positive	-11.8644
▁president	-11.8644
▁punishment	-11.8644
▁pursuit	-11.8644
▁restaurant	-11.8644
▁riyals	-11.8644
▁sensitive	-11.8644
▁sensor	-11.8644
▁shield	-11.8644
▁smooth	-11.8644
▁stretch	-11.8644
▁succeed	-11.8644
▁television	-11.8644
▁traffic	-11.8644
▁traitor	-11.8644
▁unfortunate	-11.8644
▁vampire	-11.8644
▁vessel	-11.8644
▁villain	-11.8644
▁অঙ্কুর	-11.8644
▁অনলাইনে	-11.8644
▁অভিজ্ঞতা	-11.8644
▁আইএসএস	-11.8644
▁আধুনিক	-11.8644
▁উন্মুক্ত	-11.8644
▁এঞ্জেলা	-11.8644
▁কাঠবিড়ালী	-11.8644
▁ক্ষমাপ্রার্থী	-11.8644
▁চল্লিশ	-11.8644
▁চ্যানেল	-11.8644
▁চ্যাম্পিয়ন	-11.8644
▁ছুঁড়ে	-11.8644
▁ছোঁয়া	-11.8644
▁ছোকরা	-11.8644
▁টেলিফোন	-11.8644
▁ডার্সি	-11.8644
▁ডিরেক্টিভ	-11.8644
▁ডোজার	-11.8644
▁দুর্দান্ত	-11.8644
▁পর্যবেক্ষণ	-11.8644
▁পোঁটলা	-11.8644
▁বায়োলজি	-11.8644
▁মাঝামাঝি	-11.8644
▁মুগ্ধ	-11.8644
▁মেকানিক	-11.8644
▁মোবাইল	-11.8644
▁যত্তসব	-11.8644
▁রাজকীয়	-11.8644
▁রিওরড্যান	-11.8644
▁লাইগ্যা	-11.8644
▁শতাংশ	-11.8644
▁শারীরিক	-11.8644
▁সতীর্থ	-11.8644
▁সহযোগিতা	-11.8644
▁সার্জারি	-11.8644
▁Alright	-11.8644
▁Bucket	-11.8644
▁Nurse	-11.8644
▁Physic	-11.8644
▁Spirit	-11.8644
▁conscious	-11.8644
▁fruit	-11.8644
▁humble	-11.8644
▁predator	-11.8644
▁ইলেক্ট্র	-11.8644
▁কর্মকর্তা	-11.8644
▁কাঠামো	-11.8644
▁নিরামিষ	-11.8644
▁পাকড়াও	-11.8644
▁মেজাজ	-11.8644
▁শাবাশ	-11.8644
▁Charge	-11.8644
▁Sleep	-11.8644
▁Witness	-11.8644
▁boykie	-11.8644
▁desire	-11.8644
▁silent	-11.8644
▁কচ্ছপ	-11.8644
▁গোষ্ঠী	-11.8644
▁জাগিয়ে	-11.8644
▁লড়বে	-11.8644
▁filth	-11.8644
▁flash	-11.8644
▁intact	-11.8644
▁jelly	-11.8644
▁trail	-11.8644
▁খাঁটি	-11.8644
▁ডেভিড	-11.8644
▁পোলাপান	-11.8644
▁Double	-11.8644
▁personnel	-11.8644
▁কল্টার	-11.8644
▁নগদ	-11.8644
▁পতাকা	-11.8644
▁Cheese	-11.8644
▁Papa	-11.8644
▁ওয়েলকাম	-11.8644
▁ভদ্রলোক	-11.8644
▁disaster	-11.8644
▁উৎসাহ	-11.8644
▁ছাগল	-11.8644
▁Clean	-11.8644
▁Paris	-11.8644
▁branch	-11.8644
▁chemical	-11.8644
▁পিসিন	-11.8644
▁marvel	-11.8644
▁propose	-11.8644
▁ঠেলা	-11.8644
▁পরিত্যা	-11.8644
▁Troy	-11.8644
▁eventually	-11.8644
▁argu	-11.8644
▁jail	-11.8644
▁value	-11.8644
▁মডেল	-11.8644
ফ্রিজ	-11.8644
▁ক্যাপসুল	-11.8644
▁initial	-11.8644
▁cheap	-11.8644
▁উল্টা	-11.8644
▁খোকা	-11.8644
▁spider	-11.8644
▁equal	-11.8644
▁হাটতে	-11.8644
▁Dead	-11.8644
▁Welch	-11.8644
▁Jones	-11.8644
▁ফ্রেংক	-11.8644
▁Super	-11.8644
▁unusual	-11.8644
▁আকৃতি	-11.8644
▁weather	-11.8644
▁option	-11.8644
▁Madam	-11.8644
▁fond	-11.8644
▁আস্থা	-11.8644
▁জৈব	-11.8644
ধ্বনি	-11.8644
▁insult	-11.8645
Radio	-11.8645
▁আসামী	-11.8645
▁Sati	-11.8645
▁পঁচ	-11.8645
fusion	-11.8645
▁কুড়ান	-11.8646
▁ক্লিন	-11.8646
▁হাজির	-11.8646
▁দেবলোক	-11.8647
▁Wild	-11.8649
▁মহিমা	-11.865
screen	-11.8651
▁Whee	-11.8653
▁শস্য	-11.8657
▁সুনাম	-11.8658
▁খুঁজছ	-11.9489
য়ান্টা	-11.9763
প্রার্থনা	-11.9782
ভাগ্য	-11.9782
changed	-11.9782
ধন্যবাদ	-11.9783
কোথায়	-11.9783
Yeah	-11.9783
This	-11.9783
জায়গা	-11.9785
▁predict	-11.9813
▁Russia	-11.9872
▁জিজ্ঞাস	-11.9883
▁immediate	-11.9886
▁ROSE	-11.9894
পলিফিউমাস	-11.9894
▁Thirty	-11.9894
▁উদ্ভাবন	-11.9894
▁কুৎসিত	-11.9894
▁ডেয়টন	-11.9894
▁তহবিল	-11.9894
▁নির্ধারণ	-11.9894
▁নোঙর	-11.9894
▁পরিবহন	-11.9894
▁পুরষ্কার	-11.9894
▁প্রতিনিধি	-11.9894
▁বিশ্লেষ	-11.9894
▁মুশকিল	-11.9894
▁শ্যাম্পেইন	-11.9894
▁সংগ্রাম	-11.9894
▁সাম্রাজ্য	-11.9894
PLAYING	-11.9894
ampai	-11.9894
zombie	-11.9894
সাইক্ল	-11.9894
্ত্যেষ্টিক্রিয়া	-11.9894
▁1945	-11.9894
▁Abigail	-11.9894
▁Admiral	-11.9894
▁Amazing	-11.9894
▁Annabeth	-11.9894
▁Attorney	-11.9894
▁Avanthika	-11.9894
▁Batroc	-11.9894
▁Central	-11.9894
▁Citizen	-11.9894
▁England	-11.9894
▁Focus	-11.9894
▁Found	-11.9894
▁Handsome	-11.9894
▁Hawaii	-11.9894
▁Indominus	-11.9894
▁Interesting	-11.9894
▁Internet	-11.9894
▁Keymaker	-11.9894
▁Leila	-11.9894
▁Miriam	-11.9894
▁Monica	-11.9894
▁Monsieur	-11.9894
▁Moyerson	-11.9894
▁Natasha	-11.9894
▁Nefario	-11.9894
▁Negative	-11.9894
▁Nigger	-11.9894
▁Pacific	-11.9894
▁Pondicherry	-11.9894
▁Rosalie	-11.9894
▁Salma	-11.9894
▁School	-11.9894
▁Shenzhou	-11.9894
▁Thunder	-11.9894
▁Zero	-11.9894
▁acquisition	-11.9894
▁approximately	-11.9894
▁atmosphere	-11.9894
▁banana	-11.9894
▁beloved	-11.9894
▁benefit	-11.9894
▁channel	-11.9894
▁charities	-11.9894
▁colleague	-11.9894
▁consequence	-11.9894
▁diagnos	-11.9894
▁draft	-11.9894
▁easily	-11.9894
▁education	-11.9894
▁electrical	-11.9894
▁explore	-11.9894
▁feature	-11.9894
▁female	-11.9894
▁fossil	-11.9894
▁ghetto	-11.9894
▁guilty	-11.9894
▁hallucinat	-11.9894
▁hijack	-11.9894
▁humiliat	-11.9894
▁individual	-11.9894
▁invitation	-11.9894
▁irrelevant	-11.9894
▁micro	-11.9894
▁mirror	-11.9894
▁monitor	-11.9894
▁motorcycle	-11.9894
▁moustache	-11.9894
▁negative	-11.9894
▁perimeter	-11.9894
▁recruit	-11.9894
▁repair	-11.9894
▁reputation	-11.9894
▁senior	-11.9894
▁supply	-11.9894
▁sustain	-11.9894
▁tragedy	-11.9894
▁transmission	-11.9894
▁underground	-11.9894
▁unknown	-11.9894
▁violence	-11.9894
▁violent	-11.9894
▁virgin	-11.9894
▁অবন্তিকা	-11.9894
▁অ্যালগরিদম	-11.9894
▁অ্যালার্ম	-11.9894
▁আঁচড়	-11.9894
▁আনিঙ্গাক	-11.9894
▁আশঙ্কা	-11.9894
▁ইমারজেন্সি	-11.9894
▁উপন্যাস	-11.9894
▁এক্কেরে	-11.9894
▁এনডিউরেন্স	-11.9894
▁ওভাররাইড	-11.9894
▁কৃষক	-11.9894
▁গিফট	-11.9894
▁ঘিরে	-11.9894
▁জেন্টলম্যান	-11.9894
▁টিকটিকি	-11.9894
▁টেম্পল	-11.9894
▁ডিপার্টমেন্ট	-11.9894
▁ডেব্রা	-11.9894
▁ডেলিভারি	-11.9894
▁দর্শকমন্ডলী	-11.9894
▁নার্ভাস	-11.9894
▁নিরীহ	-11.9894
▁নেফারিও	-11.9894
▁প্রতারণা	-11.9894
▁ফ্রিকোয়েন্সি	-11.9894
▁বিদ্যুৎ	-11.9894
▁বিপরীত	-11.9894
▁বিষণ্ণ	-11.9894
▁বৈদ্যুতিক	-11.9894
▁ব্রেসলেট	-11.9894
▁ভগবান	-11.9894
▁ভার্জিন	-11.9894
▁মাঝেমাঝে	-11.9894
▁মাদারচোঁত	-11.9894
▁রহস্যময়ী	-11.9894
▁রাসায়নিক	-11.9894
▁রুপকথা	-11.9894
▁লিডাভিগ	-11.9894
▁লিপস্টিক	-11.9894
▁সার্কাস	-11.9894
▁সিনিয়র	-11.9894
▁স্বাক্ষর	-11.9894
▁হায়দ্রাবাদ	-11.9894
document	-11.9894
▁Alpha	-11.9894
▁Chechen	-11.9894
▁Consider	-11.9894
▁Hamada	-11.9894
▁Kevin	-11.9894
▁carriage	-11.9894
▁column	-11.9894
▁concept	-11.9894
▁lifeboat	-11.9894
▁mathematic	-11.9894
▁miserable	-11.9894
▁module	-11.9894
▁ninth	-11.9894
▁symp	-11.9894
▁threatened	-11.9894
▁tradition	-11.9894
▁vegetable	-11.9894
▁আবহাওয়া	-11.9894
▁উদ্বেগ	-11.9894
▁গোঁফ	-11.9894
▁চিরতরে	-11.9894
▁জোসেফ	-11.9894
▁ফ্রাই	-11.9894
▁বেহালা	-11.9894
▁সংরক্ষিত	-11.9894
▁হামাদা	-11.9894
▁হিংসা	-11.9894
▁1-6	-11.9894
▁AUTO	-11.9894
▁Navy	-11.9894
▁Ugh	-11.9894
▁babies	-11.9894
▁cocoa	-11.9894
▁sprout	-11.9894
▁ঢুকব	-11.9894
▁ধংস্ব	-11.9894
▁পরীক্ষক	-11.9894
▁রবার্ট	-11.9894
▁লড়বো	-11.9894
ওয়্যার	-11.9894
▁Macto	-11.9894
▁Phase	-11.9894
▁Ruth	-11.9894
▁Vegas	-11.9894
▁handsome	-11.9894
▁squad	-11.9894
▁ইয়াঙ্কি	-11.9894
▁নেকড়ে	-11.9894
▁মাথামোটা	-11.9894
▁সার্চ	-11.9894
▁Fox	-11.9894
▁adult	-11.9894
▁church	-11.9894
▁felon	-11.9894
▁rude	-11.9894
▁আঙ্গটি	-11.9894
▁কেভিন	-11.9894
চূর্ণ	-11.9894
িকল্প	-11.9894
▁Bucky	-11.9894
▁creating	-11.9894
▁defect	-11.9894
▁starving	-11.9894
▁সংগম	-11.9894
fflict	-11.9894
▁Carlyle	-11.9894
▁জিসাস	-11.9894
▁সনাক্ত	-11.9894
▁সামলাও	-11.9894
▁Borel	-11.9894
▁প্রবাহ	-11.9894
▁বাড়বে	-11.9894
▁Truly	-11.9894
▁adapt	-11.9894
▁ড্রপ	-11.9894
▁নম্বর	-11.9894
identified	-11.9894
▁Steel	-11.9894
▁জোগাড়	-11.9894
▁Strong	-11.9894
▁movie	-11.9894
▁আশাকরি	-11.9894
▁emerg	-11.9894
▁স্ট্রিট	-11.9894
▁ব্রায়ান	-11.9894
▁থমাস	-11.9894
▁ভেগাস	-11.9894
▁Robert	-11.9894
▁সওয়ারি	-11.9894
▁চার্চ	-11.9894
▁মাক্তো	-11.9894
সমাপ্ত	-11.9895
মোনিয়া	-11.9895
▁vote	-11.9896
▁স্লিপ	-11.9898
▁পুনর্	-11.9899
▁চারিদিক	-11.99
▁কয়েদ	-11.9901
▁Defin	-11.9903
mperial	-11.9904
হাউজ	-11.9928
ixie	-12.0005
▁যুদ্ধক্ষেত্র	-12.0098
স্ট্যান্ড	-12.0205
ক্ষেত্রে	-12.0981
্ডারের	-12.1048
স্বাগতম	-12.1211
Because	-12.1212
▁emotion	-12.1259
ASHI	-12.1266
মহিম	-12.1315
▁compass	-12.1319
Confirm	-12.1322
খ্রিষ্ট	-12.1322
▁accent	-12.1322
▁উৎপাদ	-12.1322
▁বিনোদন	-12.1322
▁সূর্যোদয়	-12.1322
Bullshit	-12.1322
Loompas	-12.1322
fashioned	-12.1322
uthorities	-12.1322
কোলাকুলি	-12.1322
থোর্ন	-12.1322
দ্বন্দ্ব	-12.1322
প্রাসঙ্গিক	-12.1322
▁Acknowledge	-12.1322
▁Activat	-12.1322
▁Anastasia	-12.1322
▁Animal	-12.1322
▁Atlanta	-12.1322
▁Behind	-12.1322
▁Bobinsky	-12.1322
▁Caeser	-12.1322
▁Church	-12.1322
▁Colonel	-12.1322
▁Daniel	-12.1322
▁Department	-12.1322
▁Drisella	-12.1322
▁Drummer	-12.1322
▁Dubai	-12.1322
▁Emergency	-12.1322
▁Engineering	-12.1322
▁Fifteen	-12.1322
▁Frankenstein	-12.1322
▁Georgia	-12.1322
▁Godzilla	-12.1322
▁Honestly	-12.1322
▁Hyderabad	-12.1322
▁Jonathan	-12.1322
▁Krishna	-12.1322
▁Kronos	-12.1322
▁Lavender	-12.1322
▁Lemkova	-12.1322
▁Lidewij	-12.1322
▁Marriage	-12.1322
▁Omaticaya	-12.1322
▁Override	-12.1322
▁Palace	-12.1322
▁Polyphemus	-12.1322
▁Premier	-12.1322
▁Randall	-12.1322
▁Rutledge	-12.1322
▁Sacrific	-12.1322
▁Seraph	-12.1322
▁Shivagami	-12.1322
▁Takashi	-12.1322
▁Timox	-12.1322
▁Vidia	-12.1322
▁Vietnam	-12.1322
▁Wonderful	-12.1322
▁Wyborne	-12.1322
▁apologies	-12.1322
▁applie	-12.1322
▁autopilot	-12.1322
▁bracelet	-12.1322
▁brick	-12.1322
▁buddies	-12.1322
▁campaign	-12.1322
▁casualties	-12.1322
▁civilization	-12.1322
▁communicate	-12.1322
▁confusing	-12.1322
▁deactivate	-12.1322
▁dessert	-12.1322
▁display	-12.1322
▁division	-12.1322
▁efficient	-12.1322
▁entrance	-12.1322
▁escort	-12.1322
▁expensive	-12.1322
▁fierce	-12.1322
▁generous	-12.1322
▁greedy	-12.1322
▁guidance	-12.1322
▁helicarrier	-12.1322
▁impact	-12.1322
▁integrity	-12.1322
[	-13.5817
ৌ	-13.5818
ঞ	-13.5819
ঝ	-13.582
ৃ	-13.5821
ঘ	-13.5822
